#ifndef PTM_1_H
#define PTM_1_H


unsigned int ptm_1_len = 3952;
unsigned char ptm_1[] = {
 0x1c, 0x00, 0x00, 0x00, 0x54, 0x46, 0x4c, 0x33, 0x14, 0x00, 0x20, 0x00,
  0x1c, 0x00, 0x18, 0x00, 0x14, 0x00, 0x10, 0x00, 0x0c, 0x00, 0x00, 0x00,
  0x08, 0x00, 0x04, 0x00, 0x14, 0x00, 0x00, 0x00, 0x1c, 0x00, 0x00, 0x00,
  0x90, 0x00, 0x00, 0x00, 0xe8, 0x00, 0x00, 0x00, 0xdc, 0x06, 0x00, 0x00,
  0xec, 0x06, 0x00, 0x00, 0x18, 0x0f, 0x00, 0x00, 0x03, 0x00, 0x00, 0x00,
  0x01, 0x00, 0x00, 0x00, 0x10, 0x00, 0x00, 0x00, 0x00, 0x00, 0x0a, 0x00,
  0x10, 0x00, 0x0c, 0x00, 0x08, 0x00, 0x04, 0x00, 0x0a, 0x00, 0x00, 0x00,
  0x0c, 0x00, 0x00, 0x00, 0x1c, 0x00, 0x00, 0x00, 0x38, 0x00, 0x00, 0x00,
  0x0f, 0x00, 0x00, 0x00, 0x73, 0x65, 0x72, 0x76, 0x69, 0x6e, 0x67, 0x5f,
  0x64, 0x65, 0x66, 0x61, 0x75, 0x6c, 0x74, 0x00, 0x01, 0x00, 0x00, 0x00,
  0x04, 0x00, 0x00, 0x00, 0x98, 0xff, 0xff, 0xff, 0x0c, 0x00, 0x00, 0x00,
  0x04, 0x00, 0x00, 0x00, 0x07, 0x00, 0x00, 0x00, 0x64, 0x65, 0x6e, 0x73,
  0x65, 0x5f, 0x33, 0x00, 0x01, 0x00, 0x00, 0x00, 0x04, 0x00, 0x00, 0x00,
  0xb2, 0xf9, 0xff, 0xff, 0x04, 0x00, 0x00, 0x00, 0x0b, 0x00, 0x00, 0x00,
  0x64, 0x65, 0x6e, 0x73, 0x65, 0x5f, 0x69, 0x6e, 0x70, 0x75, 0x74, 0x00,
  0x02, 0x00, 0x00, 0x00, 0x34, 0x00, 0x00, 0x00, 0x04, 0x00, 0x00, 0x00,
  0xdc, 0xff, 0xff, 0xff, 0x0f, 0x00, 0x00, 0x00, 0x04, 0x00, 0x00, 0x00,
  0x13, 0x00, 0x00, 0x00, 0x43, 0x4f, 0x4e, 0x56, 0x45, 0x52, 0x53, 0x49,
  0x4f, 0x4e, 0x5f, 0x4d, 0x45, 0x54, 0x41, 0x44, 0x41, 0x54, 0x41, 0x00,
  0x08, 0x00, 0x0c, 0x00, 0x08, 0x00, 0x04, 0x00, 0x08, 0x00, 0x00, 0x00,
  0x0e, 0x00, 0x00, 0x00, 0x04, 0x00, 0x00, 0x00, 0x13, 0x00, 0x00, 0x00,
  0x6d, 0x69, 0x6e, 0x5f, 0x72, 0x75, 0x6e, 0x74, 0x69, 0x6d, 0x65, 0x5f,
  0x76, 0x65, 0x72, 0x73, 0x69, 0x6f, 0x6e, 0x00, 0x10, 0x00, 0x00, 0x00,
  0xf0, 0x05, 0x00, 0x00, 0xe8, 0x05, 0x00, 0x00, 0xd4, 0x05, 0x00, 0x00,
  0xac, 0x05, 0x00, 0x00, 0x5c, 0x05, 0x00, 0x00, 0x4c, 0x04, 0x00, 0x00,
  0xfc, 0x03, 0x00, 0x00, 0xec, 0x02, 0x00, 0x00, 0x9c, 0x02, 0x00, 0x00,
  0xac, 0x00, 0x00, 0x00, 0xa4, 0x00, 0x00, 0x00, 0x9c, 0x00, 0x00, 0x00,
  0x94, 0x00, 0x00, 0x00, 0x8c, 0x00, 0x00, 0x00, 0x6c, 0x00, 0x00, 0x00,
  0x04, 0x00, 0x00, 0x00, 0x6a, 0xfa, 0xff, 0xff, 0x04, 0x00, 0x00, 0x00,
  0x58, 0x00, 0x00, 0x00, 0x0c, 0x00, 0x00, 0x00, 0x08, 0x00, 0x0e, 0x00,
  0x08, 0x00, 0x04, 0x00, 0x08, 0x00, 0x00, 0x00, 0x10, 0x00, 0x00, 0x00,
  0x28, 0x00, 0x00, 0x00, 0x00, 0x00, 0x06, 0x00, 0x08, 0x00, 0x04, 0x00,
  0x06, 0x00, 0x00, 0x00, 0x04, 0x00, 0x00, 0x00, 0x01, 0x00, 0x00, 0x00,
  0xeb, 0x03, 0x00, 0x00, 0x00, 0x00, 0x0a, 0x00, 0x10, 0x00, 0x0c, 0x00,
  0x08, 0x00, 0x04, 0x00, 0x0a, 0x00, 0x00, 0x00, 0x02, 0x00, 0x00, 0x00,
  0x02, 0x00, 0x00, 0x00, 0x04, 0x00, 0x00, 0x00, 0x06, 0x00, 0x00, 0x00,
  0x32, 0x2e, 0x31, 0x31, 0x2e, 0x30, 0x00, 0x00, 0xce, 0xfa, 0xff, 0xff,
  0x04, 0x00, 0x00, 0x00, 0x10, 0x00, 0x00, 0x00, 0x31, 0x2e, 0x31, 0x34,
  0x2e, 0x30, 0x00, 0x00, 0x00, 0x00, 0x00, 0x00, 0x00, 0x00, 0x00, 0x00,
  0x54, 0xfa, 0xff, 0xff, 0x58, 0xfa, 0xff, 0xff, 0x5c, 0xfa, 0xff, 0xff,
  0x60, 0xfa, 0xff, 0xff, 0xfa, 0xfa, 0xff, 0xff, 0x04, 0x00, 0x00, 0x00,
  0xe0, 0x01, 0x00, 0x00, 0x1d, 0xed, 0x0e, 0xef, 0xfb, 0x1d, 0x02, 0xf1,
  0xf3, 0x1d, 0xd3, 0xd1, 0x38, 0x25, 0xf0, 0x3d, 0x22, 0xcf, 0xe2, 0x0d,
  0xd8, 0xf6, 0xfb, 0xee, 0x26, 0xe1, 0xc1, 0x22, 0x18, 0x11, 0xd2, 0xe9,
  0xf1, 0x09, 0xf2, 0x0c, 0x15, 0xeb, 0x0a, 0x1b, 0xfe, 0x0f, 0x15, 0x10,
  0xf2, 0x17, 0xf4, 0x06, 0xf8, 0x17, 0xfb, 0xf2, 0x28, 0xff, 0xf5, 0xe9,
  0x16, 0xde, 0xe0, 0x43, 0xe3, 0x30, 0xec, 0xee, 0xe2, 0xec, 0x12, 0x06,
  0xf4, 0x1d, 0x14, 0x09, 0x0e, 0xf4, 0xf3, 0x2a, 0x0e, 0x00, 0x03, 0xc0,
  0x07, 0x02, 0xe6, 0x0d, 0xe0, 0x1b, 0x30, 0x3d, 0x27, 0x0d, 0xdc, 0x24,
  0xd0, 0x2b, 0xf1, 0xf3, 0xf7, 0x0c, 0xee, 0x2a, 0x09, 0xfb, 0x03, 0xcd,
  0xef, 0x0f, 0x06, 0x1d, 0x08, 0xed, 0xdf, 0xf2, 0x1c, 0x19, 0x13, 0xc2,
  0xfd, 0x31, 0x0a, 0x01, 0x20, 0xea, 0x23, 0x09, 0x07, 0x0c, 0x1c, 0x05,
  0xf2, 0xee, 0xf8, 0xd9, 0xff, 0xe7, 0xef, 0x10, 0x01, 0x07, 0x00, 0x11,
  0xfd, 0xe6, 0xff, 0x02, 0xe6, 0x44, 0x0f, 0xb3, 0xee, 0xf2, 0x17, 0x09,
  0x08, 0xf2, 0x12, 0xf7, 0x02, 0x02, 0x0e, 0x06, 0xf8, 0x06, 0x04, 0xea,
  0xf0, 0x17, 0xe5, 0x1c, 0xfd, 0x16, 0x06, 0xf5, 0xff, 0xf9, 0x04, 0xd3,
  0xe0, 0x3a, 0xfb, 0x40, 0xf0, 0xf2, 0xe6, 0x0e, 0x0a, 0x09, 0xec, 0xf5,
  0x07, 0xeb, 0x16, 0xf3, 0x16, 0xd9, 0xfc, 0x0d, 0xee, 0x0b, 0xfb, 0x0c,
  0xd4, 0x1e, 0x0a, 0xcd, 0x29, 0xfd, 0xf6, 0x32, 0xf6, 0x27, 0x01, 0xfd,
  0x36, 0x14, 0x00, 0x01, 0x08, 0xf7, 0x06, 0x06, 0x01, 0x1c, 0x15, 0x10,
  0x15, 0xeb, 0x09, 0x05, 0xeb, 0x03, 0xfe, 0x15, 0xf2, 0xf0, 0x2c, 0xef,
  0xe6, 0x2d, 0x27, 0xcb, 0x39, 0xeb, 0xfa, 0xe1, 0x08, 0xf6, 0x02, 0xff,
  0xfe, 0xd6, 0x03, 0x17, 0xd5, 0xf0, 0x25, 0xe4, 0xe3, 0xe9, 0xff, 0x03,
  0x0c, 0x03, 0x0b, 0x1a, 0x0e, 0x09, 0xf1, 0xb7, 0x28, 0x18, 0x12, 0xfb,
  0xf7, 0xea, 0xf8, 0x03, 0x07, 0x09, 0xf8, 0x16, 0xe4, 0x10, 0x21, 0xf8,
  0x03, 0xf9, 0xf1, 0x00, 0x1b, 0x0f, 0x17, 0x11, 0x0e, 0x03, 0xf5, 0x30,
  0xfc, 0xa4, 0xc0, 0xa0, 0xfb, 0xec, 0xf7, 0xff, 0xf7, 0x01, 0xf8, 0xff,
  0xfb, 0xf4, 0xff, 0xf0, 0xfa, 0x11, 0x09, 0xfc, 0x03, 0xef, 0x04, 0xfc,
  0x0f, 0xeb, 0x03, 0x0d, 0xe3, 0x01, 0xe1, 0x65, 0xff, 0x1b, 0xfc, 0x1e,
  0x0d, 0x22, 0x02, 0xf4, 0xfe, 0x27, 0x03, 0x03, 0xfd, 0x27, 0xfc, 0x00,
  0xf3, 0xf9, 0x15, 0xe2, 0x1a, 0x00, 0x09, 0x1a, 0xe0, 0x00, 0x16, 0xfd,
  0x03, 0xfa, 0x24, 0x41, 0x08, 0x1c, 0x0c, 0x07, 0x12, 0xf5, 0xf7, 0x01,
  0x17, 0x0d, 0xf5, 0x32, 0x00, 0x15, 0xf8, 0x15, 0x00, 0xfa, 0xf2, 0xf7,
  0xfd, 0xfd, 0xfb, 0xf1, 0x16, 0x0a, 0x15, 0xbf, 0x24, 0x81, 0xdc, 0xde,
  0x0f, 0x02, 0x10, 0x0e, 0xee, 0x24, 0xf5, 0x03, 0xf9, 0x12, 0x10, 0xec,
  0x17, 0x02, 0xf6, 0xe9, 0xe9, 0xe6, 0xbf, 0xf9, 0x08, 0x24, 0x2f, 0xf1,
  0x16, 0xe8, 0xcc, 0xf3, 0xde, 0xe2, 0xff, 0x09, 0xe8, 0x01, 0xf5, 0x10,
  0xe2, 0xf2, 0x06, 0x10, 0xd9, 0xd1, 0x18, 0xf3, 0x06, 0x02, 0xf9, 0x38,
  0xdc, 0xf6, 0x34, 0xf3, 0x19, 0x19, 0xd3, 0xc7, 0xe6, 0xb1, 0xe7, 0x26,
  0xf2, 0x0d, 0xfd, 0x0a, 0xdb, 0x0b, 0xfa, 0x1e, 0xf1, 0x08, 0x06, 0xce,
  0x0e, 0x00, 0xf3, 0x2d, 0x27, 0x06, 0xf0, 0xd5, 0xf8, 0xed, 0xd7, 0xc9,
  0xe7, 0xea, 0x11, 0xf8, 0xe6, 0xfc, 0xff, 0xff, 0x04, 0x00, 0x00, 0x00,
  0x40, 0x00, 0x00, 0x00, 0x5b, 0x01, 0x00, 0x00, 0x69, 0x00, 0x00, 0x00,
  0x3c, 0x00, 0x00, 0x00, 0x40, 0x00, 0x00, 0x00, 0x4b, 0x01, 0x00, 0x00,
  0xad, 0x00, 0x00, 0x00, 0x73, 0xfe, 0xff, 0xff, 0x83, 0xff, 0xff, 0xff,
  0xd4, 0xff, 0xff, 0xff, 0x64, 0x01, 0x00, 0x00, 0x79, 0x01, 0x00, 0x00,
  0x14, 0xff, 0xff, 0xff, 0x10, 0x00, 0x00, 0x00, 0x35, 0x00, 0x00, 0x00,
  0xdb, 0xfd, 0xff, 0xff, 0x3d, 0xfe, 0xff, 0xff, 0x32, 0xfd, 0xff, 0xff,
  0x04, 0x00, 0x00, 0x00, 0x00, 0x01, 0x00, 0x00, 0x03, 0x0e, 0x05, 0xf6,
  0x0d, 0x03, 0x0b, 0xf9, 0x0f, 0x04, 0xf4, 0xf9, 0x08, 0x01, 0x06, 0x09,
  0x01, 0x09, 0x05, 0x0e, 0x02, 0xfb, 0x06, 0xf6, 0x0c, 0xe3, 0xed, 0x03,
  0x0c, 0x03, 0x0b, 0xea, 0xf5, 0xfb, 0x07, 0xfd, 0x06, 0xfa, 0xf9, 0x07,
  0x03, 0xfd, 0xfb, 0x03, 0x0f, 0x06, 0x00, 0x0b, 0xfb, 0x00, 0xe4, 0x07,
  0xfd, 0x0b, 0x02, 0xc2, 0xe7, 0xff, 0x06, 0xf2, 0x00, 0x03, 0x11, 0x00,
  0x10, 0x09, 0xd9, 0xf8, 0xfc, 0xfa, 0xf3, 0xf8, 0xfe, 0x0b, 0xf9, 0xf1,
  0x0a, 0x00, 0x06, 0xf8, 0xe9, 0x06, 0x09, 0xf2, 0xe6, 0x0c, 0xf9, 0xfa,
  0x01, 0x0c, 0x00, 0xfc, 0xbc, 0xe1, 0xe7, 0x05, 0xfd, 0x01, 0x0a, 0xfd,
  0x0b, 0xfa, 0x03, 0xf7, 0x03, 0x00, 0x10, 0x03, 0xfb, 0xf9, 0xfd, 0xff,
  0x02, 0xfc, 0x05, 0xfe, 0xf6, 0x0c, 0xf1, 0x0a, 0xf8, 0xfb, 0x0c, 0xf4,
  0x81, 0xeb, 0x00, 0xf3, 0xfa, 0xff, 0x08, 0xfd, 0xfc, 0x05, 0x0d, 0x0d,
  0xf8, 0xf6, 0x10, 0x06, 0xfa, 0x01, 0xf9, 0x01, 0xfe, 0x02, 0x04, 0x02,
  0xff, 0xf9, 0x01, 0x06, 0xfb, 0xef, 0x0f, 0x10, 0x00, 0xea, 0x09, 0xfd,
  0x12, 0xe1, 0xea, 0x02, 0x04, 0x14, 0xee, 0xff, 0xee, 0x0c, 0xf3, 0xf9,
  0xf5, 0x0e, 0xf7, 0xfd, 0xee, 0xe5, 0xe3, 0xf8, 0xfa, 0xe6, 0xf1, 0x0a,
  0x09, 0x0b, 0xf8, 0xfe, 0x07, 0xff, 0x07, 0xf5, 0xf9, 0x07, 0xfb, 0x0c,
  0xf8, 0x0c, 0x03, 0xf1, 0x08, 0xf7, 0x0b, 0x0b, 0x00, 0x0a, 0xf3, 0x0e,
  0x08, 0x08, 0x04, 0x04, 0xff, 0x0a, 0x03, 0xf7, 0xfc, 0xbd, 0x0b, 0x09,
  0xf3, 0xfe, 0xfa, 0x09, 0xe9, 0xf3, 0xf1, 0x00, 0xff, 0x06, 0x09, 0xff,
  0xf9, 0x07, 0xf9, 0x8a, 0xfd, 0x0f, 0xee, 0x0a, 0xf9, 0xf3, 0x08, 0xf5,
  0xf6, 0xfb, 0xf5, 0x0c, 0x03, 0xf5, 0xf6, 0xf0, 0xfc, 0xf7, 0x02, 0xf6,
  0x3e, 0xfe, 0xff, 0xff, 0x04, 0x00, 0x00, 0x00, 0x40, 0x00, 0x00, 0x00,
  0x41, 0x00, 0x00, 0x00, 0xac, 0xff, 0xff, 0xff, 0x54, 0x00, 0x00, 0x00,
  0x98, 0xff, 0xff, 0xff, 0xa7, 0x00, 0x00, 0x00, 0x36, 0x00, 0x00, 0x00,
  0xe1, 0xff, 0xff, 0xff, 0x63, 0x00, 0x00, 0x00, 0xbd, 0xff, 0xff, 0xff,
  0xfa, 0xff, 0xff, 0xff, 0x91, 0x00, 0x00, 0x00, 0xac, 0xff, 0xff, 0xff,
  0x36, 0x00, 0x00, 0x00, 0x28, 0x00, 0x00, 0x00, 0x17, 0x00, 0x00, 0x00,
  0xf4, 0xff, 0xff, 0xff, 0x8a, 0xfe, 0xff, 0xff, 0x04, 0x00, 0x00, 0x00,
  0x00, 0x01, 0x00, 0x00, 0x04, 0xf6, 0x06, 0xee, 0xfd, 0x03, 0x01, 0x21,
  0xef, 0x07, 0xfd, 0x09, 0x10, 0x16, 0xfd, 0x0e, 0xf1, 0xf6, 0xfb, 0x09,
  0xf0, 0xf4, 0xfd, 0xed, 0xf0, 0xf4, 0xec, 0x0d, 0xef, 0x0b, 0x07, 0x0c,
  0x14, 0xff, 0x04, 0xed, 0x01, 0xdd, 0x08, 0xd3, 0x11, 0x03, 0x06, 0x05,
  0xec, 0xf0, 0x0f, 0xfa, 0x07, 0xfc, 0xe9, 0x0b, 0x81, 0xf3, 0xf0, 0x0a,
  0x15, 0xed, 0xe1, 0xe6, 0x10, 0x03, 0x1c, 0x07, 0xf8, 0xf7, 0xfa, 0xef,
  0x13, 0xee, 0x0c, 0x0d, 0x01, 0xf1, 0xd0, 0x17, 0xed, 0xfd, 0xf5, 0xf8,
  0x13, 0xff, 0xfa, 0xeb, 0xfe, 0x11, 0xf2, 0xfe, 0xf7, 0xfa, 0xfc, 0x16,
  0x14, 0x0f, 0x01, 0x09, 0x14, 0xf3, 0x07, 0x06, 0xf8, 0x02, 0xe3, 0x0a,
  0xe9, 0x11, 0x09, 0x08, 0x15, 0xff, 0xfc, 0x0e, 0x0b, 0x04, 0x0a, 0xfe,
  0x05, 0xf4, 0x02, 0xfc, 0xf0, 0xef, 0x02, 0x0c, 0xf0, 0x04, 0xf6, 0x0a,
  0xd3, 0xd0, 0xf6, 0xe9, 0x0d, 0x15, 0xf2, 0x00, 0xee, 0x13, 0xf7, 0xcf,
  0x01, 0x08, 0xec, 0xf1, 0x0a, 0x0b, 0xeb, 0x0d, 0x14, 0x12, 0x0d, 0x22,
  0xf7, 0xe6, 0x26, 0xce, 0x0c, 0xfb, 0xd3, 0x0f, 0x06, 0x1b, 0xed, 0xd8,
  0xf4, 0x0a, 0xed, 0x05, 0x00, 0xec, 0x19, 0xa8, 0x14, 0xe6, 0xe6, 0xf9,
  0x05, 0x13, 0x0f, 0xfc, 0x0d, 0xfb, 0x0d, 0xed, 0xed, 0x0c, 0xf7, 0xf8,
  0xf8, 0x14, 0x0c, 0x0e, 0x06, 0xe2, 0xee, 0xb6, 0x08, 0xfd, 0xf1, 0x03,
  0x17, 0x15, 0x07, 0xfe, 0x11, 0xff, 0xe5, 0x12, 0x0f, 0x08, 0xf6, 0xf5,
  0xf5, 0x0e, 0x08, 0x21, 0x0e, 0x0c, 0xec, 0x03, 0x0d, 0x09, 0x10, 0xf7,
  0x09, 0x03, 0x0b, 0xdb, 0x07, 0xfc, 0xeb, 0xef, 0x05, 0xf9, 0xf9, 0x0b,
  0x0d, 0x05, 0xf1, 0x0d, 0x03, 0x03, 0x11, 0x11, 0xf5, 0x0e, 0x07, 0x03,
  0xea, 0xed, 0x11, 0xf9, 0x05, 0xf3, 0x05, 0xf5, 0x96, 0xff, 0xff, 0xff,
  0x04, 0x00, 0x00, 0x00, 0x40, 0x00, 0x00, 0x00, 0x56, 0x00, 0x00, 0x00,
  0x00, 0x00, 0x00, 0x00, 0x5b, 0x00, 0x00, 0x00, 0xe8, 0x00, 0x00, 0x00,
  0x87, 0xff, 0xff, 0xff, 0x3a, 0xff, 0xff, 0xff, 0xb4, 0x00, 0x00, 0x00,
  0xd6, 0xff, 0xff, 0xff, 0x65, 0x00, 0x00, 0x00, 0x19, 0x01, 0x00, 0x00,
  0xe7, 0xff, 0xff, 0xff, 0x12, 0x00, 0x00, 0x00, 0xdc, 0xff, 0xff, 0xff,
  0xf1, 0xff, 0xff, 0xff, 0x99, 0x00, 0x00, 0x00, 0x06, 0x00, 0x00, 0x00,
  0xe2, 0xff, 0xff, 0xff, 0x04, 0x00, 0x00, 0x00, 0x10, 0x00, 0x00, 0x00,
  0x38, 0xf0, 0xd6, 0x34, 0x25, 0xc7, 0xad, 0xb3, 0xcd, 0x7f, 0x97, 0xdd,
  0x55, 0x3c, 0xfb, 0x2d, 0x00, 0x00, 0x06, 0x00, 0x08, 0x00, 0x04, 0x00,
  0x06, 0x00, 0x00, 0x00, 0x04, 0x00, 0x00, 0x00, 0x04, 0x00, 0x00, 0x00,
  0x19, 0x00, 0x00, 0x00, 0x80, 0xff, 0xff, 0xff, 0x84, 0xff, 0xff, 0xff,
  0x0f, 0x00, 0x00, 0x00, 0x4d, 0x4c, 0x49, 0x52, 0x20, 0x43, 0x6f, 0x6e,
  0x76, 0x65, 0x72, 0x74, 0x65, 0x64, 0x2e, 0x00, 0x01, 0x00, 0x00, 0x00,
  0x14, 0x00, 0x00, 0x00, 0x00, 0x00, 0x0e, 0x00, 0x18, 0x00, 0x14, 0x00,
  0x10, 0x00, 0x0c, 0x00, 0x08, 0x00, 0x04, 0x00, 0x0e, 0x00, 0x00, 0x00,
  0x14, 0x00, 0x00, 0x00, 0x1c, 0x00, 0x00, 0x00, 0x14, 0x01, 0x00, 0x00,
  0x18, 0x01, 0x00, 0x00, 0x1c, 0x01, 0x00, 0x00, 0x04, 0x00, 0x00, 0x00,
  0x6d, 0x61, 0x69, 0x6e, 0x00, 0x00, 0x00, 0x00, 0x04, 0x00, 0x00, 0x00,
  0xbc, 0x00, 0x00, 0x00, 0x74, 0x00, 0x00, 0x00, 0x3c, 0x00, 0x00, 0x00,
  0x04, 0x00, 0x00, 0x00, 0x62, 0xff, 0xff, 0xff, 0x14, 0x00, 0x00, 0x00,
  0x00, 0x00, 0x00, 0x08, 0x10, 0x00, 0x00, 0x00, 0x14, 0x00, 0x00, 0x00,
  0x04, 0x00, 0x04, 0x00, 0x04, 0x00, 0x00, 0x00, 0x01, 0x00, 0x00, 0x00,
  0x0c, 0x00, 0x00, 0x00, 0x03, 0x00, 0x00, 0x00, 0x0b, 0x00, 0x00, 0x00,
  0x02, 0x00, 0x00, 0x00, 0x01, 0x00, 0x00, 0x00, 0x96, 0xff, 0xff, 0xff,
  0x10, 0x00, 0x00, 0x00, 0x00, 0x00, 0x00, 0x08, 0x10, 0x00, 0x00, 0x00,
  0x14, 0x00, 0x00, 0x00, 0x86, 0xff, 0xff, 0xff, 0x00, 0x00, 0x00, 0x01,
  0x01, 0x00, 0x00, 0x00, 0x0b, 0x00, 0x00, 0x00, 0x03, 0x00, 0x00, 0x00,
  0x0a, 0x00, 0x00, 0x00, 0x04, 0x00, 0x00, 0x00, 0x03, 0x00, 0x00, 0x00,
  0xca, 0xff, 0xff, 0xff, 0x10, 0x00, 0x00, 0x00, 0x00, 0x00, 0x00, 0x08,
  0x10, 0x00, 0x00, 0x00, 0x14, 0x00, 0x00, 0x00, 0xba, 0xff, 0xff, 0xff,
  0x00, 0x00, 0x00, 0x01, 0x01, 0x00, 0x00, 0x00, 0x0a, 0x00, 0x00, 0x00,
  0x03, 0x00, 0x00, 0x00, 0x09, 0x00, 0x00, 0x00, 0x06, 0x00, 0x00, 0x00,
  0x05, 0x00, 0x00, 0x00, 0x00, 0x00, 0x0e, 0x00, 0x16, 0x00, 0x00, 0x00,
  0x10, 0x00, 0x0c, 0x00, 0x0b, 0x00, 0x04, 0x00, 0x0e, 0x00, 0x00, 0x00,
  0x18, 0x00, 0x00, 0x00, 0x00, 0x00, 0x00, 0x08, 0x18, 0x00, 0x00, 0x00,
  0x1c, 0x00, 0x00, 0x00, 0x00, 0x00, 0x06, 0x00, 0x08, 0x00, 0x07, 0x00,
  0x06, 0x00, 0x00, 0x00, 0x00, 0x00, 0x00, 0x01, 0x01, 0x00, 0x00, 0x00,
  0x09, 0x00, 0x00, 0x00, 0x03, 0x00, 0x00, 0x00, 0x00, 0x00, 0x00, 0x00,
  0x08, 0x00, 0x00, 0x00, 0x07, 0x00, 0x00, 0x00, 0x01, 0x00, 0x00, 0x00,
  0x0c, 0x00, 0x00, 0x00, 0x01, 0x00, 0x00, 0x00, 0x00, 0x00, 0x00, 0x00,
  0x0d, 0x00, 0x00, 0x00, 0x58, 0x06, 0x00, 0x00, 0xc8, 0x05, 0x00, 0x00,
  0x44, 0x05, 0x00, 0x00, 0xc8, 0x04, 0x00, 0x00, 0x5c, 0x04, 0x00, 0x00,
  0xe0, 0x03, 0x00, 0x00, 0x74, 0x03, 0x00, 0x00, 0x00, 0x03, 0x00, 0x00,
  0x94, 0x02, 0x00, 0x00, 0xe8, 0x01, 0x00, 0x00, 0x34, 0x01, 0x00, 0x00,
  0x80, 0x00, 0x00, 0x00, 0x04, 0x00, 0x00, 0x00, 0xf2, 0xf9, 0xff, 0xff,
  0x00, 0x00, 0x00, 0x01, 0x18, 0x00, 0x00, 0x00, 0x20, 0x00, 0x00, 0x00,
  0x3c, 0x00, 0x00, 0x00, 0x0d, 0x00, 0x00, 0x00, 0x00, 0x00, 0x00, 0x09,
  0x50, 0x00, 0x00, 0x00, 0x02, 0x00, 0x00, 0x00, 0xff, 0xff, 0xff, 0xff,
  0x01, 0x00, 0x00, 0x00, 0xdc, 0xf9, 0xff, 0xff, 0x08, 0x00, 0x00, 0x00,
  0x10, 0x00, 0x00, 0x00, 0x01, 0x00, 0x00, 0x00, 0xd4, 0xff, 0xff, 0xff,
  0xff, 0xff, 0xff, 0xff, 0x01, 0x00, 0x00, 0x00, 0xed, 0xd6, 0x22, 0x3e,
  0x19, 0x00, 0x00, 0x00, 0x53, 0x74, 0x61, 0x74, 0x65, 0x66, 0x75, 0x6c,
  0x50, 0x61, 0x72, 0x74, 0x69, 0x74, 0x69, 0x6f, 0x6e, 0x65, 0x64, 0x43,
  0x61, 0x6c, 0x6c, 0x3a, 0x30, 0x00, 0x00, 0x00, 0x02, 0x00, 0x00, 0x00,
  0x01, 0x00, 0x00, 0x00, 0x01, 0x00, 0x00, 0x00, 0x6a, 0xfa, 0xff, 0xff,
  0x00, 0x00, 0x00, 0x01, 0x18, 0x00, 0x00, 0x00, 0x20, 0x00, 0x00, 0x00,
  0x40, 0x00, 0x00, 0x00, 0x0c, 0x00, 0x00, 0x00, 0x00, 0x00, 0x00, 0x09,
  0x88, 0x00, 0x00, 0x00, 0x02, 0x00, 0x00, 0x00, 0xff, 0xff, 0xff, 0xff,
  0x10, 0x00, 0x00, 0x00, 0x54, 0xfa, 0xff, 0xff, 0x08, 0x00, 0x00, 0x00,
  0x14, 0x00, 0x00, 0x00, 0x01, 0x00, 0x00, 0x00, 0x80, 0xff, 0xff, 0xff,
  0xff, 0xff, 0xff, 0xff, 0x00, 0x00, 0x00, 0x00, 0x01, 0x00, 0x00, 0x00,
  0xb6, 0xad, 0xe5, 0x3d, 0x4c, 0x00, 0x00, 0x00, 0x73, 0x65, 0x71, 0x75,
  0x65, 0x6e, 0x74, 0x69, 0x61, 0x6c, 0x2f, 0x64, 0x65, 0x6e, 0x73, 0x65,
  0x5f, 0x32, 0x2f, 0x4d, 0x61, 0x74, 0x4d, 0x75, 0x6c, 0x3b, 0x73, 0x65,
  0x71, 0x75, 0x65, 0x6e, 0x74, 0x69, 0x61, 0x6c, 0x2f, 0x64, 0x65, 0x6e,
  0x73, 0x65, 0x5f, 0x32, 0x2f, 0x52, 0x65, 0x6c, 0x75, 0x3b, 0x73, 0x65,
  0x71, 0x75, 0x65, 0x6e, 0x74, 0x69, 0x61, 0x6c, 0x2f, 0x64, 0x65, 0x6e,
  0x73, 0x65, 0x5f, 0x32, 0x2f, 0x42, 0x69, 0x61, 0x73, 0x41, 0x64, 0x64,
  0x00, 0x00, 0x00, 0x00, 0x02, 0x00, 0x00, 0x00, 0x01, 0x00, 0x00, 0x00,
  0x10, 0x00, 0x00, 0x00, 0x1a, 0xfb, 0xff, 0xff, 0x00, 0x00, 0x00, 0x01,
  0x18, 0x00, 0x00, 0x00, 0x20, 0x00, 0x00, 0x00, 0x40, 0x00, 0x00, 0x00,
  0x0b, 0x00, 0x00, 0x00, 0x00, 0x00, 0x00, 0x09, 0x88, 0x00, 0x00, 0x00,
  0x02, 0x00, 0x00, 0x00, 0xff, 0xff, 0xff, 0xff, 0x10, 0x00, 0x00, 0x00,
  0x04, 0xfb, 0xff, 0xff, 0x08, 0x00, 0x00, 0x00, 0x14, 0x00, 0x00, 0x00,
  0x01, 0x00, 0x00, 0x00, 0x80, 0xff, 0xff, 0xff, 0xff, 0xff, 0xff, 0xff,
  0x00, 0x00, 0x00, 0x00, 0x01, 0x00, 0x00, 0x00, 0x98, 0x98, 0x0f, 0x3e,
  0x4c, 0x00, 0x00, 0x00, 0x73, 0x65, 0x71, 0x75, 0x65, 0x6e, 0x74, 0x69,
  0x61, 0x6c, 0x2f, 0x64, 0x65, 0x6e, 0x73, 0x65, 0x5f, 0x31, 0x2f, 0x4d,
  0x61, 0x74, 0x4d, 0x75, 0x6c, 0x3b, 0x73, 0x65, 0x71, 0x75, 0x65, 0x6e,
  0x74, 0x69, 0x61, 0x6c, 0x2f, 0x64, 0x65, 0x6e, 0x73, 0x65, 0x5f, 0x31,
  0x2f, 0x52, 0x65, 0x6c, 0x75, 0x3b, 0x73, 0x65, 0x71, 0x75, 0x65, 0x6e,
  0x74, 0x69, 0x61, 0x6c, 0x2f, 0x64, 0x65, 0x6e, 0x73, 0x65, 0x5f, 0x31,
  0x2f, 0x42, 0x69, 0x61, 0x73, 0x41, 0x64, 0x64, 0x00, 0x00, 0x00, 0x00,
  0x02, 0x00, 0x00, 0x00, 0x01, 0x00, 0x00, 0x00, 0x10, 0x00, 0x00, 0x00,
  0xca, 0xfb, 0xff, 0xff, 0x00, 0x00, 0x00, 0x01, 0x18, 0x00, 0x00, 0x00,
  0x20, 0x00, 0x00, 0x00, 0x40, 0x00, 0x00, 0x00, 0x0a, 0x00, 0x00, 0x00,
  0x00, 0x00, 0x00, 0x09, 0x80, 0x00, 0x00, 0x00, 0x02, 0x00, 0x00, 0x00,
  0xff, 0xff, 0xff, 0xff, 0x10, 0x00, 0x00, 0x00, 0xb4, 0xfb, 0xff, 0xff,
  0x08, 0x00, 0x00, 0x00, 0x14, 0x00, 0x00, 0x00, 0x01, 0x00, 0x00, 0x00,
  0x80, 0xff, 0xff, 0xff, 0xff, 0xff, 0xff, 0xff, 0x00, 0x00, 0x00, 0x00,
  0x01, 0x00, 0x00, 0x00, 0x0b, 0x27, 0x50, 0x3e, 0x46, 0x00, 0x00, 0x00,
  0x73, 0x65, 0x71, 0x75, 0x65, 0x6e, 0x74, 0x69, 0x61, 0x6c, 0x2f, 0x64,
  0x65, 0x6e, 0x73, 0x65, 0x2f, 0x4d, 0x61, 0x74, 0x4d, 0x75, 0x6c, 0x3b,
  0x73, 0x65, 0x71, 0x75, 0x65, 0x6e, 0x74, 0x69, 0x61, 0x6c, 0x2f, 0x64,
  0x65, 0x6e, 0x73, 0x65, 0x2f, 0x52, 0x65, 0x6c, 0x75, 0x3b, 0x73, 0x65,
  0x71, 0x75, 0x65, 0x6e, 0x74, 0x69, 0x61, 0x6c, 0x2f, 0x64, 0x65, 0x6e,
  0x73, 0x65, 0x2f, 0x42, 0x69, 0x61, 0x73, 0x41, 0x64, 0x64, 0x00, 0x00,
  0x02, 0x00, 0x00, 0x00, 0x01, 0x00, 0x00, 0x00, 0x10, 0x00, 0x00, 0x00,
  0xfe, 0xfc, 0xff, 0xff, 0x00, 0x00, 0x00, 0x01, 0x14, 0x00, 0x00, 0x00,
  0x34, 0x00, 0x00, 0x00, 0x09, 0x00, 0x00, 0x00, 0x00, 0x00, 0x00, 0x09,
  0x44, 0x00, 0x00, 0x00, 0x4c, 0xfc, 0xff, 0xff, 0x08, 0x00, 0x00, 0x00,
  0x14, 0x00, 0x00, 0x00, 0x01, 0x00, 0x00, 0x00, 0x00, 0x00, 0x00, 0x00,
  0x00, 0x00, 0x00, 0x00, 0x00, 0x00, 0x00, 0x00, 0x01, 0x00, 0x00, 0x00,
  0x49, 0x30, 0x1b, 0x3c, 0x17, 0x00, 0x00, 0x00, 0x73, 0x65, 0x71, 0x75,
  0x65, 0x6e, 0x74, 0x69, 0x61, 0x6c, 0x2f, 0x64, 0x65, 0x6e, 0x73, 0x65,
  0x2f, 0x4d, 0x61, 0x74, 0x4d, 0x75, 0x6c, 0x00, 0x02, 0x00, 0x00, 0x00,
  0x10, 0x00, 0x00, 0x00, 0x1e, 0x00, 0x00, 0x00, 0x66, 0xfd, 0xff, 0xff,
  0x00, 0x00, 0x00, 0x01, 0x14, 0x00, 0x00, 0x00, 0x30, 0x00, 0x00, 0x00,
  0x08, 0x00, 0x00, 0x00, 0x00, 0x00, 0x00, 0x02, 0x50, 0x00, 0x00, 0x00,
  0xb4, 0xfc, 0xff, 0xff, 0x08, 0x00, 0x00, 0x00, 0x10, 0x00, 0x00, 0x00,
  0x01, 0x00, 0x00, 0x00, 0x00, 0x00, 0x00, 0x00, 0x00, 0x00, 0x00, 0x00,
  0x01, 0x00, 0x00, 0x00, 0xaf, 0x9b, 0xbe, 0x3a, 0x27, 0x00, 0x00, 0x00,
  0x73, 0x65, 0x71, 0x75, 0x65, 0x6e, 0x74, 0x69, 0x61, 0x6c, 0x2f, 0x64,
  0x65, 0x6e, 0x73, 0x65, 0x2f, 0x42, 0x69, 0x61, 0x73, 0x41, 0x64, 0x64,
  0x2f, 0x52, 0x65, 0x61, 0x64, 0x56, 0x61, 0x72, 0x69, 0x61, 0x62, 0x6c,
  0x65, 0x4f, 0x70, 0x00, 0x01, 0x00, 0x00, 0x00, 0x10, 0x00, 0x00, 0x00,
  0xd6, 0xfd, 0xff, 0xff, 0x00, 0x00, 0x00, 0x01, 0x14, 0x00, 0x00, 0x00,
  0x30, 0x00, 0x00, 0x00, 0x07, 0x00, 0x00, 0x00, 0x00, 0x00, 0x00, 0x09,
  0x44, 0x00, 0x00, 0x00, 0x24, 0xfd, 0xff, 0xff, 0x08, 0x00, 0x00, 0x00,
  0x10, 0x00, 0x00, 0x00, 0x01, 0x00, 0x00, 0x00, 0x00, 0x00, 0x00, 0x00,
  0x00, 0x00, 0x00, 0x00, 0x01, 0x00, 0x00, 0x00, 0xc9, 0xfc, 0xf8, 0x3c,
  0x19, 0x00, 0x00, 0x00, 0x73, 0x65, 0x71, 0x75, 0x65, 0x6e, 0x74, 0x69,
  0x61, 0x6c, 0x2f, 0x64, 0x65, 0x6e, 0x73, 0x65, 0x5f, 0x31, 0x2f, 0x4d,
  0x61, 0x74, 0x4d, 0x75, 0x6c, 0x00, 0x00, 0x00, 0x02, 0x00, 0x00, 0x00,
  0x10, 0x00, 0x00, 0x00, 0x10, 0x00, 0x00, 0x00, 0x3e, 0xfe, 0xff, 0xff,
  0x00, 0x00, 0x00, 0x01, 0x14, 0x00, 0x00, 0x00, 0x34, 0x00, 0x00, 0x00,
  0x06, 0x00, 0x00, 0x00, 0x00, 0x00, 0x00, 0x02, 0x58, 0x00, 0x00, 0x00,
  0x8c, 0xfd, 0xff, 0xff, 0x08, 0x00, 0x00, 0x00, 0x14, 0x00, 0x00, 0x00,
  0x01, 0x00, 0x00, 0x00, 0x00, 0x00, 0x00, 0x00, 0x00, 0x00, 0x00, 0x00,
  0x00, 0x00, 0x00, 0x00, 0x01, 0x00, 0x00, 0x00, 0x5d, 0x73, 0xca, 0x3b,
  0x29, 0x00, 0x00, 0x00, 0x73, 0x65, 0x71, 0x75, 0x65, 0x6e, 0x74, 0x69,
  0x61, 0x6c, 0x2f, 0x64, 0x65, 0x6e, 0x73, 0x65, 0x5f, 0x31, 0x2f, 0x42,
  0x69, 0x61, 0x73, 0x41, 0x64, 0x64, 0x2f, 0x52, 0x65, 0x61, 0x64, 0x56,
  0x61, 0x72, 0x69, 0x61, 0x62, 0x6c, 0x65, 0x4f, 0x70, 0x00, 0x00, 0x00,
  0x01, 0x00, 0x00, 0x00, 0x10, 0x00, 0x00, 0x00, 0xb6, 0xfe, 0xff, 0xff,
  0x00, 0x00, 0x00, 0x01, 0x14, 0x00, 0x00, 0x00, 0x30, 0x00, 0x00, 0x00,
  0x05, 0x00, 0x00, 0x00, 0x00, 0x00, 0x00, 0x09, 0x44, 0x00, 0x00, 0x00,
  0x04, 0xfe, 0xff, 0xff, 0x08, 0x00, 0x00, 0x00, 0x10, 0x00, 0x00, 0x00,
  0x01, 0x00, 0x00, 0x00, 0x00, 0x00, 0x00, 0x00, 0x00, 0x00, 0x00, 0x00,
  0x01, 0x00, 0x00, 0x00, 0x42, 0x91, 0xa6, 0x3c, 0x19, 0x00, 0x00, 0x00,
  0x73, 0x65, 0x71, 0x75, 0x65, 0x6e, 0x74, 0x69, 0x61, 0x6c, 0x2f, 0x64,
  0x65, 0x6e, 0x73, 0x65, 0x5f, 0x32, 0x2f, 0x4d, 0x61, 0x74, 0x4d, 0x75,
  0x6c, 0x00, 0x00, 0x00, 0x02, 0x00, 0x00, 0x00, 0x10, 0x00, 0x00, 0x00,
  0x10, 0x00, 0x00, 0x00, 0x1e, 0xff, 0xff, 0xff, 0x00, 0x00, 0x00, 0x01,
  0x14, 0x00, 0x00, 0x00, 0x34, 0x00, 0x00, 0x00, 0x04, 0x00, 0x00, 0x00,
  0x00, 0x00, 0x00, 0x02, 0x58, 0x00, 0x00, 0x00, 0x6c, 0xfe, 0xff, 0xff,
  0x08, 0x00, 0x00, 0x00, 0x14, 0x00, 0x00, 0x00, 0x01, 0x00, 0x00, 0x00,
  0x00, 0x00, 0x00, 0x00, 0x00, 0x00, 0x00, 0x00, 0x00, 0x00, 0x00, 0x00,
  0x01, 0x00, 0x00, 0x00, 0xda, 0xdc, 0x3a, 0x3b, 0x29, 0x00, 0x00, 0x00,
  0x73, 0x65, 0x71, 0x75, 0x65, 0x6e, 0x74, 0x69, 0x61, 0x6c, 0x2f, 0x64,
  0x65, 0x6e, 0x73, 0x65, 0x5f, 0x32, 0x2f, 0x42, 0x69, 0x61, 0x73, 0x41,
  0x64, 0x64, 0x2f, 0x52, 0x65, 0x61, 0x64, 0x56, 0x61, 0x72, 0x69, 0x61,
  0x62, 0x6c, 0x65, 0x4f, 0x70, 0x00, 0x00, 0x00, 0x01, 0x00, 0x00, 0x00,
  0x10, 0x00, 0x00, 0x00, 0x96, 0xff, 0xff, 0xff, 0x00, 0x00, 0x00, 0x01,
  0x14, 0x00, 0x00, 0x00, 0x30, 0x00, 0x00, 0x00, 0x03, 0x00, 0x00, 0x00,
  0x00, 0x00, 0x00, 0x09, 0x44, 0x00, 0x00, 0x00, 0xe4, 0xfe, 0xff, 0xff,
  0x08, 0x00, 0x00, 0x00, 0x10, 0x00, 0x00, 0x00, 0x01, 0x00, 0x00, 0x00,
  0x00, 0x00, 0x00, 0x00, 0x00, 0x00, 0x00, 0x00, 0x01, 0x00, 0x00, 0x00,
  0x8b, 0xeb, 0xc4, 0x3b, 0x19, 0x00, 0x00, 0x00, 0x73, 0x65, 0x71, 0x75,
  0x65, 0x6e, 0x74, 0x69, 0x61, 0x6c, 0x2f, 0x64, 0x65, 0x6e, 0x73, 0x65,
  0x5f, 0x33, 0x2f, 0x4d, 0x61, 0x74, 0x4d, 0x75, 0x6c, 0x00, 0x00, 0x00,
  0x02, 0x00, 0x00, 0x00, 0x01, 0x00, 0x00, 0x00, 0x10, 0x00, 0x00, 0x00,
  0x00, 0x00, 0x16, 0x00, 0x1c, 0x00, 0x18, 0x00, 0x17, 0x00, 0x10, 0x00,
  0x0c, 0x00, 0x08, 0x00, 0x00, 0x00, 0x00, 0x00, 0x00, 0x00, 0x07, 0x00,
  0x16, 0x00, 0x00, 0x00, 0x00, 0x00, 0x00, 0x01, 0x14, 0x00, 0x00, 0x00,
  0x30, 0x00, 0x00, 0x00, 0x02, 0x00, 0x00, 0x00, 0x00, 0x00, 0x00, 0x02,
  0x54, 0x00, 0x00, 0x00, 0x64, 0xff, 0xff, 0xff, 0x08, 0x00, 0x00, 0x00,
  0x10, 0x00, 0x00, 0x00, 0x01, 0x00, 0x00, 0x00, 0x00, 0x00, 0x00, 0x00,
  0x00, 0x00, 0x00, 0x00, 0x01, 0x00, 0x00, 0x00, 0x53, 0xac, 0x30, 0x3a,
  0x29, 0x00, 0x00, 0x00, 0x73, 0x65, 0x71, 0x75, 0x65, 0x6e, 0x74, 0x69,
  0x61, 0x6c, 0x2f, 0x64, 0x65, 0x6e, 0x73, 0x65, 0x5f, 0x33, 0x2f, 0x42,
  0x69, 0x61, 0x73, 0x41, 0x64, 0x64, 0x2f, 0x52, 0x65, 0x61, 0x64, 0x56,
  0x61, 0x72, 0x69, 0x61, 0x62, 0x6c, 0x65, 0x4f, 0x70, 0x00, 0x00, 0x00,
  0x01, 0x00, 0x00, 0x00, 0x01, 0x00, 0x00, 0x00, 0x00, 0x00, 0x16, 0x00,
  0x20, 0x00, 0x1c, 0x00, 0x1b, 0x00, 0x14, 0x00, 0x10, 0x00, 0x0c, 0x00,
  0x00, 0x00, 0x00, 0x00, 0x08, 0x00, 0x07, 0x00, 0x16, 0x00, 0x00, 0x00,
  0x00, 0x00, 0x00, 0x01, 0x18, 0x00, 0x00, 0x00, 0x2c, 0x00, 0x00, 0x00,
  0x4c, 0x00, 0x00, 0x00, 0x01, 0x00, 0x00, 0x00, 0x00, 0x00, 0x00, 0x09,
  0x64, 0x00, 0x00, 0x00, 0x02, 0x00, 0x00, 0x00, 0xff, 0xff, 0xff, 0xff,
  0x1e, 0x00, 0x00, 0x00, 0x0c, 0x00, 0x0c, 0x00, 0x00, 0x00, 0x00, 0x00,
  0x08, 0x00, 0x04, 0x00, 0x0c, 0x00, 0x00, 0x00, 0x08, 0x00, 0x00, 0x00,
  0x14, 0x00, 0x00, 0x00, 0x01, 0x00, 0x00, 0x00, 0xd9, 0xff, 0xff, 0xff,
  0xff, 0xff, 0xff, 0xff, 0x00, 0x00, 0x00, 0x00, 0x01, 0x00, 0x00, 0x00,
  0xd1, 0x36, 0x1d, 0x3e, 0x1d, 0x00, 0x00, 0x00, 0x73, 0x65, 0x72, 0x76,
  0x69, 0x6e, 0x67, 0x5f, 0x64, 0x65, 0x66, 0x61, 0x75, 0x6c, 0x74, 0x5f,
  0x64, 0x65, 0x6e, 0x73, 0x65, 0x5f, 0x69, 0x6e, 0x70, 0x75, 0x74, 0x3a,
  0x30, 0x00, 0x00, 0x00, 0x02, 0x00, 0x00, 0x00, 0x01, 0x00, 0x00, 0x00,
  0x1e, 0x00, 0x00, 0x00, 0x01, 0x00, 0x00, 0x00, 0x10, 0x00, 0x00, 0x00,
  0x0c, 0x00, 0x10, 0x00, 0x0f, 0x00, 0x00, 0x00, 0x08, 0x00, 0x04, 0x00,
  0x0c, 0x00, 0x00, 0x00, 0x09, 0x00, 0x00, 0x00, 0x04, 0x00, 0x00, 0x00,
  0x00, 0x00, 0x00, 0x09
};

#endif //PTM_1_H