#ifndef POINT_MODEL_H
#define POINT_MODEL_H


unsigned int point_model_len = 3168;
unsigned char point_model[] = {
 0x1c, 0x00, 0x00, 0x00, 0x54, 0x46, 0x4c, 0x33, 0x14, 0x00, 0x20, 0x00,
  0x1c, 0x00, 0x18, 0x00, 0x14, 0x00, 0x10, 0x00, 0x0c, 0x00, 0x00, 0x00,
  0x08, 0x00, 0x04, 0x00, 0x14, 0x00, 0x00, 0x00, 0x1c, 0x00, 0x00, 0x00,
  0x90, 0x00, 0x00, 0x00, 0xe8, 0x00, 0x00, 0x00, 0x04, 0x07, 0x00, 0x00,
  0x14, 0x07, 0x00, 0x00, 0x0c, 0x0c, 0x00, 0x00, 0x03, 0x00, 0x00, 0x00,
  0x01, 0x00, 0x00, 0x00, 0x10, 0x00, 0x00, 0x00, 0x00, 0x00, 0x0a, 0x00,
  0x10, 0x00, 0x0c, 0x00, 0x08, 0x00, 0x04, 0x00, 0x0a, 0x00, 0x00, 0x00,
  0x0c, 0x00, 0x00, 0x00, 0x1c, 0x00, 0x00, 0x00, 0x38, 0x00, 0x00, 0x00,
  0x0f, 0x00, 0x00, 0x00, 0x73, 0x65, 0x72, 0x76, 0x69, 0x6e, 0x67, 0x5f,
  0x64, 0x65, 0x66, 0x61, 0x75, 0x6c, 0x74, 0x00, 0x01, 0x00, 0x00, 0x00,
  0x04, 0x00, 0x00, 0x00, 0x98, 0xff, 0xff, 0xff, 0x09, 0x00, 0x00, 0x00,
  0x04, 0x00, 0x00, 0x00, 0x07, 0x00, 0x00, 0x00, 0x64, 0x65, 0x6e, 0x73,
  0x65, 0x5f, 0x32, 0x00, 0x01, 0x00, 0x00, 0x00, 0x04, 0x00, 0x00, 0x00,
  0xc6, 0xf9, 0xff, 0xff, 0x04, 0x00, 0x00, 0x00, 0x0b, 0x00, 0x00, 0x00,
  0x64, 0x65, 0x6e, 0x73, 0x65, 0x5f, 0x69, 0x6e, 0x70, 0x75, 0x74, 0x00,
  0x02, 0x00, 0x00, 0x00, 0x34, 0x00, 0x00, 0x00, 0x04, 0x00, 0x00, 0x00,
  0xdc, 0xff, 0xff, 0xff, 0x0c, 0x00, 0x00, 0x00, 0x04, 0x00, 0x00, 0x00,
  0x13, 0x00, 0x00, 0x00, 0x43, 0x4f, 0x4e, 0x56, 0x45, 0x52, 0x53, 0x49,
  0x4f, 0x4e, 0x5f, 0x4d, 0x45, 0x54, 0x41, 0x44, 0x41, 0x54, 0x41, 0x00,
  0x08, 0x00, 0x0c, 0x00, 0x08, 0x00, 0x04, 0x00, 0x08, 0x00, 0x00, 0x00,
  0x0b, 0x00, 0x00, 0x00, 0x04, 0x00, 0x00, 0x00, 0x13, 0x00, 0x00, 0x00,
  0x6d, 0x69, 0x6e, 0x5f, 0x72, 0x75, 0x6e, 0x74, 0x69, 0x6d, 0x65, 0x5f,
  0x76, 0x65, 0x72, 0x73, 0x69, 0x6f, 0x6e, 0x00, 0x0d, 0x00, 0x00, 0x00,
  0x18, 0x06, 0x00, 0x00, 0x10, 0x06, 0x00, 0x00, 0xc0, 0x05, 0x00, 0x00,
  0xa4, 0x05, 0x00, 0x00, 0x54, 0x05, 0x00, 0x00, 0x04, 0x05, 0x00, 0x00,
  0xf4, 0x00, 0x00, 0x00, 0xa4, 0x00, 0x00, 0x00, 0x9c, 0x00, 0x00, 0x00,
  0x94, 0x00, 0x00, 0x00, 0x8c, 0x00, 0x00, 0x00, 0x6c, 0x00, 0x00, 0x00,
  0x04, 0x00, 0x00, 0x00, 0x72, 0xfa, 0xff, 0xff, 0x04, 0x00, 0x00, 0x00,
  0x58, 0x00, 0x00, 0x00, 0x0c, 0x00, 0x00, 0x00, 0x08, 0x00, 0x0e, 0x00,
  0x08, 0x00, 0x04, 0x00, 0x08, 0x00, 0x00, 0x00, 0x10, 0x00, 0x00, 0x00,
  0x28, 0x00, 0x00, 0x00, 0x00, 0x00, 0x06, 0x00, 0x08, 0x00, 0x04, 0x00,
  0x06, 0x00, 0x00, 0x00, 0x04, 0x00, 0x00, 0x00, 0x01, 0x00, 0x00, 0x00,
  0xea, 0x03, 0x00, 0x00, 0x00, 0x00, 0x0a, 0x00, 0x10, 0x00, 0x0c, 0x00,
  0x08, 0x00, 0x04, 0x00, 0x0a, 0x00, 0x00, 0x00, 0x02, 0x00, 0x00, 0x00,
  0x02, 0x00, 0x00, 0x00, 0x04, 0x00, 0x00, 0x00, 0x06, 0x00, 0x00, 0x00,
  0x32, 0x2e, 0x31, 0x31, 0x2e, 0x30, 0x00, 0x00, 0xd6, 0xfa, 0xff, 0xff,
  0x04, 0x00, 0x00, 0x00, 0x10, 0x00, 0x00, 0x00, 0x31, 0x2e, 0x35, 0x2e,
  0x30, 0x00, 0x00, 0x00, 0x00, 0x00, 0x00, 0x00, 0x00, 0x00, 0x00, 0x00,
  0xc0, 0xf5, 0xff, 0xff, 0xc4, 0xf5, 0xff, 0xff, 0xc8, 0xf5, 0xff, 0xff,
  0xfe, 0xfa, 0xff, 0xff, 0x04, 0x00, 0x00, 0x00, 0x40, 0x00, 0x00, 0x00,
  0x20, 0xc6, 0x94, 0xbf, 0xa0, 0x5a, 0xf5, 0xbe, 0xcf, 0x40, 0xc1, 0x3f,
  0x04, 0x56, 0x80, 0x3a, 0x36, 0x6b, 0x6f, 0xbf, 0x0a, 0xe3, 0x97, 0xbe,
  0xb3, 0xb2, 0x1e, 0x40, 0xa8, 0x97, 0xa1, 0x3f, 0xcc, 0x7b, 0x50, 0xbd,
  0x4a, 0x9b, 0x72, 0x3e, 0x28, 0xfc, 0xaa, 0xbd, 0xf2, 0xea, 0xa7, 0xbf,
  0x1d, 0x3c, 0x80, 0xbf, 0x08, 0x46, 0x43, 0xbf, 0x38, 0x7f, 0xd1, 0x3e,
  0x3c, 0x59, 0x15, 0x3f, 0x4a, 0xfb, 0xff, 0xff, 0x04, 0x00, 0x00, 0x00,
  0x00, 0x04, 0x00, 0x00, 0x8f, 0x4c, 0x93, 0x3f, 0x74, 0xd6, 0xbc, 0xbd,
  0x46, 0xd1, 0x78, 0xbf, 0x8c, 0x09, 0xb7, 0x3d, 0x9d, 0x0f, 0x6d, 0x3f,
  0xf3, 0xdd, 0xc8, 0xbe, 0x49, 0x1a, 0x4d, 0x3e, 0x59, 0x6d, 0x11, 0xbf,
  0xda, 0x3b, 0x79, 0xbe, 0xa7, 0x37, 0x42, 0xbe, 0xe9, 0x18, 0x88, 0xbe,
  0x21, 0x06, 0x00, 0x3f, 0x35, 0x41, 0x99, 0xbe, 0x96, 0x6e, 0x70, 0x3e,
  0x8a, 0x75, 0xbe, 0xbe, 0x44, 0x83, 0xc5, 0xbd, 0x29, 0xf4, 0xdb, 0xbe,
  0xc3, 0x1e, 0xd5, 0xbe, 0xbc, 0xdb, 0xd1, 0x3d, 0xe0, 0x49, 0xb5, 0xbd,
  0x64, 0xac, 0xcd, 0x3d, 0x5e, 0x3a, 0x06, 0x3e, 0xad, 0x3c, 0xc3, 0x3e,
  0xe3, 0x5b, 0xd8, 0xbe, 0xb9, 0xb4, 0xc7, 0x3e, 0xe1, 0xb4, 0xb8, 0xbe,
  0xce, 0xee, 0x4d, 0x3e, 0xde, 0xf8, 0xb9, 0xbe, 0x28, 0x1c, 0xb2, 0xbe,
  0x76, 0x3b, 0x6e, 0x3e, 0xe3, 0x55, 0xdd, 0x3e, 0xfb, 0x9f, 0xb2, 0x3e,
  0xd9, 0xbc, 0x40, 0x3f, 0xf0, 0xf4, 0xde, 0xbc, 0x8f, 0x74, 0xc9, 0xbf,
  0xec, 0xd9, 0xdb, 0xbe, 0xc7, 0xe1, 0x17, 0x3f, 0x02, 0x1b, 0x26, 0xbe,
  0x69, 0x1b, 0xe9, 0x3d, 0x80, 0xb4, 0xed, 0xbf, 0x39, 0x3e, 0x46, 0xbe,
  0xc6, 0x87, 0x31, 0x3e, 0xce, 0xb7, 0x1c, 0xbf, 0xd7, 0x21, 0xaf, 0x3e,
  0x37, 0x23, 0x0c, 0x3e, 0xde, 0x3c, 0x1c, 0x3e, 0x41, 0x61, 0x48, 0xbe,
  0xe2, 0x51, 0x14, 0x3e, 0x23, 0x8e, 0xa4, 0x3e, 0xec, 0x0a, 0xca, 0x3d,
  0x6f, 0xea, 0xd8, 0x3d, 0x51, 0x9d, 0xad, 0xbe, 0x33, 0x2e, 0x31, 0x3e,
  0x80, 0x58, 0x97, 0xbe, 0xc2, 0xa9, 0x9f, 0xbc, 0x7b, 0x3f, 0x9f, 0xbe,
  0x0e, 0x9b, 0x74, 0x3e, 0x13, 0xd7, 0xa4, 0x3e, 0xaf, 0x89, 0x98, 0x3d,
  0x7b, 0x98, 0xda, 0xbe, 0x1b, 0xeb, 0x75, 0x3e, 0x8e, 0x69, 0x42, 0x3e,
  0xf0, 0xd7, 0x14, 0x3d, 0x58, 0x3f, 0x45, 0xbe, 0x2f, 0xd3, 0x89, 0xbf,
  0xcc, 0xb5, 0xb5, 0xbd, 0x72, 0xcf, 0xf6, 0x3e, 0x9f, 0x62, 0xc6, 0x3e,
  0x14, 0xa3, 0x37, 0xbf, 0xe7, 0x4a, 0x80, 0xbe, 0xea, 0x0c, 0xc1, 0x3d,
  0x9d, 0x1e, 0x1c, 0xbd, 0x80, 0x4b, 0x01, 0x3d, 0x46, 0x6c, 0x65, 0x3e,
  0x49, 0xf6, 0xde, 0x3e, 0x3d, 0x3d, 0x26, 0xbf, 0xdc, 0xe8, 0x97, 0x3e,
  0x0d, 0x13, 0xbd, 0x3e, 0x00, 0xe3, 0x84, 0x3d, 0x3c, 0x6b, 0xf5, 0x3d,
  0xb2, 0xa9, 0x89, 0xbe, 0xde, 0x08, 0x97, 0xbe, 0x06, 0xdb, 0x99, 0x3e,
  0xe8, 0x6a, 0x2a, 0xbd, 0x5f, 0x71, 0x15, 0xbe, 0x3e, 0x68, 0x2d, 0xbe,
  0x38, 0x67, 0x88, 0x3d, 0x98, 0x7e, 0x76, 0x3e, 0xc5, 0x70, 0xcc, 0xbe,
  0x2f, 0xef, 0xca, 0xbe, 0x9e, 0x6f, 0xfa, 0x3d, 0xcc, 0xdc, 0xd0, 0x3e,
  0x6c, 0xea, 0xf5, 0x3d, 0x1a, 0xdf, 0x11, 0x3e, 0x96, 0xd2, 0x12, 0x3e,
  0xb8, 0x4c, 0x6b, 0xbd, 0xf2, 0x0f, 0x78, 0xbf, 0xc0, 0xc2, 0xb2, 0x3c,
  0x81, 0xaa, 0x81, 0x3e, 0x99, 0xfd, 0xd0, 0x3e, 0x15, 0x85, 0x3f, 0xbf,
  0xaa, 0x31, 0x18, 0x3e, 0xac, 0xa3, 0x45, 0x3e, 0xf8, 0x39, 0x1b, 0x3e,
  0x07, 0x2c, 0x86, 0x3e, 0xc0, 0x58, 0xe1, 0xbc, 0xc9, 0xb6, 0xab, 0x3e,
  0xd0, 0x8b, 0x39, 0xbf, 0x3a, 0x5d, 0x9f, 0xbe, 0xee, 0x97, 0x2e, 0x3e,
  0x11, 0xdb, 0xd5, 0x3e, 0x41, 0x0e, 0xb1, 0x3e, 0xbe, 0xc3, 0xd5, 0xbf,
  0xb1, 0xf1, 0xa9, 0xbe, 0x11, 0x22, 0x00, 0x3f, 0xeb, 0x0f, 0x9f, 0xbe,
  0x8d, 0xdb, 0xc1, 0xbf, 0x4a, 0xd7, 0xc2, 0xbe, 0x64, 0xf6, 0x83, 0xbe,
  0xe8, 0x2f, 0x75, 0xbe, 0x8d, 0x11, 0x8c, 0x3e, 0x55, 0x12, 0xd4, 0xbe,
  0x83, 0xfc, 0x7b, 0xbb, 0xc0, 0x9d, 0x10, 0xbe, 0x34, 0x46, 0xbb, 0x3e,
  0x4c, 0xd9, 0xcc, 0xbd, 0x74, 0xda, 0xd0, 0x3d, 0xf8, 0x56, 0xd8, 0xbd,
  0x50, 0xc0, 0x88, 0xbe, 0x24, 0x11, 0xb8, 0xbd, 0xfe, 0xce, 0x88, 0xbe,
  0x11, 0xb3, 0xc0, 0x3e, 0x38, 0x48, 0x30, 0xbe, 0xff, 0x3a, 0xcd, 0x3e,
  0xa3, 0x74, 0xaf, 0xbe, 0x92, 0xc3, 0xc6, 0x3e, 0x7f, 0xc5, 0xc3, 0x3e,
  0x63, 0x57, 0x54, 0xbe, 0xd0, 0x35, 0x2c, 0xbe, 0xa0, 0x70, 0x21, 0xbd,
  0xbc, 0x9b, 0xb3, 0x3e, 0x3a, 0xae, 0x0d, 0x3e, 0xc4, 0x00, 0xed, 0x3d,
  0xc9, 0x28, 0xcf, 0x3e, 0x05, 0x50, 0x8f, 0x3e, 0x86, 0x98, 0x1d, 0x3e,
  0x1c, 0x42, 0xa5, 0xbe, 0x7d, 0x59, 0xd7, 0x3e, 0xbc, 0xe4, 0xf9, 0xbd,
  0x30, 0x0f, 0xb1, 0xbe, 0x18, 0x7e, 0x03, 0xbe, 0xf7, 0x42, 0x83, 0x3e,
  0xde, 0x7a, 0x77, 0x3e, 0x53, 0x64, 0xd7, 0xbe, 0xac, 0x01, 0x01, 0xbd,
  0x13, 0xb9, 0x39, 0xbd, 0x99, 0x9c, 0xc6, 0xbe, 0x70, 0x40, 0x57, 0xbe,
  0x3d, 0xe4, 0xd2, 0x3e, 0x98, 0x90, 0x0f, 0xbd, 0xf9, 0xb3, 0x46, 0x3e,
  0x80, 0xdd, 0xd7, 0xbe, 0x42, 0x3a, 0x47, 0x3e, 0x52, 0x49, 0x05, 0xbe,
  0x41, 0xdb, 0xe1, 0xbd, 0xba, 0xb7, 0x1a, 0xbe, 0xa8, 0xca, 0x2e, 0xbe,
  0x04, 0x2a, 0x01, 0x3e, 0x94, 0xa5, 0xe4, 0xbd, 0x82, 0xe6, 0x08, 0x3e,
  0x07, 0x8f, 0x35, 0x3e, 0x8a, 0x30, 0x0c, 0x3e, 0x8e, 0xcf, 0x51, 0xbf,
  0x3b, 0x43, 0x95, 0x3e, 0x1d, 0x98, 0xb3, 0x3e, 0x7e, 0xfd, 0x1a, 0x3e,
  0xb4, 0x22, 0xf5, 0x3c, 0x9f, 0x78, 0x86, 0x3e, 0xda, 0xc0, 0x3a, 0xbe,
  0xbd, 0xc7, 0x98, 0x3e, 0xf7, 0xbe, 0x96, 0x3e, 0xb4, 0x2f, 0xf7, 0x3d,
  0x9d, 0xb2, 0xcc, 0xbf, 0xa4, 0x8e, 0x55, 0x3e, 0x6d, 0xd8, 0xb1, 0x3e,
  0xb8, 0x16, 0xa8, 0xbe, 0x2f, 0x0a, 0x97, 0xbf, 0x4d, 0xa2, 0x07, 0xbe,
  0xbd, 0xbc, 0xac, 0xbf, 0x78, 0xbf, 0x1d, 0xbe, 0x1e, 0x9c, 0x03, 0x3e,
  0x84, 0x80, 0xa6, 0x3d, 0xe6, 0xf3, 0xce, 0x3e, 0x64, 0x0a, 0xe1, 0xbd,
  0xe6, 0xef, 0xbf, 0x3d, 0x38, 0x65, 0x0b, 0x3d, 0x81, 0xb4, 0x05, 0xbe,
  0x9c, 0xa0, 0xa4, 0xbe, 0x03, 0xca, 0xba, 0xbf, 0x6c, 0x6e, 0x1f, 0xbd,
  0xbd, 0x61, 0xb5, 0x3e, 0x24, 0xd6, 0xdc, 0x3d, 0x86, 0x24, 0x3c, 0xbf,
  0x9b, 0x4d, 0xa6, 0xbc, 0x84, 0x26, 0x96, 0xbf, 0x6f, 0x83, 0x99, 0x3e,
  0x0e, 0x7c, 0x3a, 0x3e, 0xa3, 0xbe, 0x74, 0xbe, 0xe2, 0xde, 0x1e, 0xbf,
  0x40, 0xdd, 0x8d, 0xbe, 0x90, 0xd9, 0x94, 0x3e, 0x21, 0xad, 0x5d, 0xbe,
  0x8b, 0x59, 0x7c, 0xbf, 0xb3, 0x64, 0x91, 0x3e, 0xbe, 0xa6, 0xdc, 0x3e,
  0x31, 0xbb, 0x0c, 0x3e, 0x09, 0x0d, 0x6f, 0xbe, 0xf1, 0x75, 0xa0, 0x3e,
  0x60, 0x78, 0x19, 0x3e, 0x25, 0x22, 0x0a, 0xbf, 0x32, 0x0f, 0x70, 0x3e,
  0x25, 0xe3, 0x5d, 0xbe, 0xd8, 0x8d, 0x02, 0xbe, 0xb2, 0xf8, 0x5c, 0xbe,
  0x4b, 0xef, 0xc7, 0x3e, 0x90, 0xf0, 0xc2, 0xbe, 0x24, 0x80, 0x91, 0x3d,
  0xd4, 0xd4, 0xd3, 0xbd, 0xaa, 0x52, 0x2e, 0xbe, 0x54, 0x5d, 0xfe, 0x3d,
  0x38, 0x4e, 0xed, 0xbd, 0xc0, 0xee, 0x89, 0xbe, 0x78, 0x0a, 0xa0, 0xbd,
  0xea, 0x4c, 0x81, 0xbe, 0x81, 0x6e, 0xbe, 0x3e, 0x0b, 0x20, 0x91, 0xbe,
  0x28, 0x9b, 0xb6, 0xbe, 0x22, 0xc5, 0x2d, 0x3e, 0xd0, 0x59, 0x27, 0xbe,
  0x4d, 0xe8, 0xd0, 0xbe, 0xc3, 0x3b, 0x19, 0x3f, 0xf0, 0x0b, 0x1c, 0xbe,
  0x0d, 0x60, 0x1c, 0x3e, 0xc0, 0x80, 0xb7, 0xbe, 0x14, 0xdd, 0x8f, 0x3e,
  0x80, 0xe8, 0xf7, 0x3c, 0x4b, 0x6a, 0xb1, 0x3e, 0x7c, 0x80, 0x4f, 0x3d,
  0xae, 0x57, 0x48, 0x3e, 0x09, 0xd5, 0x80, 0x3e, 0xca, 0x01, 0x33, 0x3c,
  0x81, 0xb3, 0x05, 0x3f, 0x4d, 0xa8, 0x9b, 0x3e, 0x0c, 0x20, 0x80, 0xbe,
  0x86, 0xdf, 0x6d, 0xbe, 0x91, 0xbe, 0x8a, 0x3e, 0x56, 0xff, 0xff, 0xff,
  0x04, 0x00, 0x00, 0x00, 0x40, 0x00, 0x00, 0x00, 0xa5, 0xa9, 0x83, 0xbe,
  0x7f, 0xfc, 0xe5, 0xbe, 0x8c, 0x87, 0x0f, 0x3f, 0x1c, 0xa9, 0xee, 0xbd,
  0x6c, 0x41, 0x78, 0xbe, 0x50, 0xdb, 0x55, 0xbd, 0x50, 0x04, 0x0a, 0x3e,
  0x88, 0xbc, 0xba, 0x3e, 0x3c, 0x9f, 0x01, 0xbf, 0xd5, 0x4a, 0x0f, 0xbf,
  0xe3, 0xc7, 0xee, 0x3e, 0xeb, 0xdf, 0x13, 0xbe, 0xfe, 0xdb, 0xa8, 0x3e,
  0x84, 0x8d, 0x00, 0xbf, 0xea, 0x67, 0xf1, 0xbe, 0x65, 0x6d, 0x01, 0xbf,
  0xa2, 0xff, 0xff, 0xff, 0x04, 0x00, 0x00, 0x00, 0x40, 0x00, 0x00, 0x00,
  0x9c, 0x08, 0xcf, 0x3f, 0x00, 0x00, 0x00, 0x00, 0xb7, 0x29, 0x13, 0xbf,
  0x00, 0x00, 0x00, 0x00, 0xf9, 0x40, 0xc4, 0x3f, 0x00, 0x00, 0x00, 0x00,
  0xe4, 0x6d, 0xa8, 0xba, 0xd2, 0xc6, 0x9a, 0xbe, 0x00, 0x00, 0x00, 0x00,
  0x00, 0x00, 0x00, 0x00, 0xf5, 0x63, 0x01, 0xbf, 0xb5, 0x7c, 0xbf, 0x3f,
  0xc8, 0x3b, 0x27, 0xbb, 0x00, 0x00, 0x00, 0x00, 0x00, 0x00, 0x00, 0x00,
  0x00, 0x00, 0x00, 0x00, 0xee, 0xff, 0xff, 0xff, 0x04, 0x00, 0x00, 0x00,
  0x04, 0x00, 0x00, 0x00, 0xb8, 0x3d, 0x0f, 0x3e, 0x00, 0x00, 0x06, 0x00,
  0x08, 0x00, 0x04, 0x00, 0x06, 0x00, 0x00, 0x00, 0x04, 0x00, 0x00, 0x00,
  0x40, 0x00, 0x00, 0x00, 0x5d, 0xab, 0x64, 0x3f, 0x00, 0x00, 0x00, 0x00,
  0x8d, 0x58, 0x39, 0x3f, 0xab, 0x54, 0x22, 0xbe, 0x9c, 0x1b, 0x95, 0xbe,
  0x03, 0x1f, 0x68, 0xbd, 0x92, 0x4f, 0xe6, 0xbe, 0xc2, 0xdc, 0x45, 0xbe,
  0xe8, 0x12, 0x54, 0xbc, 0x6e, 0x08, 0x4d, 0xbe, 0x75, 0xee, 0x23, 0xbe,
  0x13, 0xfd, 0x5f, 0xbb, 0x76, 0x84, 0xb5, 0x3c, 0x3f, 0x5b, 0x9e, 0xbe,
  0x00, 0x00, 0x00, 0x00, 0x7c, 0x52, 0x18, 0x3e, 0x20, 0xfb, 0xff, 0xff,
  0x24, 0xfb, 0xff, 0xff, 0x0f, 0x00, 0x00, 0x00, 0x4d, 0x4c, 0x49, 0x52,
  0x20, 0x43, 0x6f, 0x6e, 0x76, 0x65, 0x72, 0x74, 0x65, 0x64, 0x2e, 0x00,
  0x01, 0x00, 0x00, 0x00, 0x14, 0x00, 0x00, 0x00, 0x00, 0x00, 0x0e, 0x00,
  0x18, 0x00, 0x14, 0x00, 0x10, 0x00, 0x0c, 0x00, 0x08, 0x00, 0x04, 0x00,
  0x0e, 0x00, 0x00, 0x00, 0x14, 0x00, 0x00, 0x00, 0x1c, 0x00, 0x00, 0x00,
  0xd8, 0x00, 0x00, 0x00, 0xdc, 0x00, 0x00, 0x00, 0xe0, 0x00, 0x00, 0x00,
  0x04, 0x00, 0x00, 0x00, 0x6d, 0x61, 0x69, 0x6e, 0x00, 0x00, 0x00, 0x00,
  0x03, 0x00, 0x00, 0x00, 0x80, 0x00, 0x00, 0x00, 0x38, 0x00, 0x00, 0x00,
  0x04, 0x00, 0x00, 0x00, 0x9a, 0xff, 0xff, 0xff, 0x10, 0x00, 0x00, 0x00,
  0x00, 0x00, 0x00, 0x08, 0x0c, 0x00, 0x00, 0x00, 0x10, 0x00, 0x00, 0x00,
  0x9c, 0xfb, 0xff, 0xff, 0x01, 0x00, 0x00, 0x00, 0x09, 0x00, 0x00, 0x00,
  0x03, 0x00, 0x00, 0x00, 0x08, 0x00, 0x00, 0x00, 0x06, 0x00, 0x00, 0x00,
  0x02, 0x00, 0x00, 0x00, 0xca, 0xff, 0xff, 0xff, 0x10, 0x00, 0x00, 0x00,
  0x00, 0x00, 0x00, 0x08, 0x10, 0x00, 0x00, 0x00, 0x14, 0x00, 0x00, 0x00,
  0xba, 0xff, 0xff, 0xff, 0x00, 0x00, 0x00, 0x01, 0x01, 0x00, 0x00, 0x00,
  0x08, 0x00, 0x00, 0x00, 0x03, 0x00, 0x00, 0x00, 0x07, 0x00, 0x00, 0x00,
  0x05, 0x00, 0x00, 0x00, 0x01, 0x00, 0x00, 0x00, 0x00, 0x00, 0x0e, 0x00,
  0x16, 0x00, 0x00, 0x00, 0x10, 0x00, 0x0c, 0x00, 0x0b, 0x00, 0x04, 0x00,
  0x0e, 0x00, 0x00, 0x00, 0x18, 0x00, 0x00, 0x00, 0x00, 0x00, 0x00, 0x08,
  0x18, 0x00, 0x00, 0x00, 0x1c, 0x00, 0x00, 0x00, 0x00, 0x00, 0x06, 0x00,
  0x08, 0x00, 0x07, 0x00, 0x06, 0x00, 0x00, 0x00, 0x00, 0x00, 0x00, 0x01,
  0x01, 0x00, 0x00, 0x00, 0x07, 0x00, 0x00, 0x00, 0x03, 0x00, 0x00, 0x00,
  0x00, 0x00, 0x00, 0x00, 0x04, 0x00, 0x00, 0x00, 0x03, 0x00, 0x00, 0x00,
  0x01, 0x00, 0x00, 0x00, 0x09, 0x00, 0x00, 0x00, 0x01, 0x00, 0x00, 0x00,
  0x00, 0x00, 0x00, 0x00, 0x0a, 0x00, 0x00, 0x00, 0x8c, 0x03, 0x00, 0x00,
  0x1c, 0x03, 0x00, 0x00, 0xac, 0x02, 0x00, 0x00, 0x58, 0x02, 0x00, 0x00,
  0x10, 0x02, 0x00, 0x00, 0xc4, 0x01, 0x00, 0x00, 0x78, 0x01, 0x00, 0x00,
  0xf0, 0x00, 0x00, 0x00, 0x60, 0x00, 0x00, 0x00, 0x04, 0x00, 0x00, 0x00,
  0xb2, 0xfc, 0xff, 0xff, 0x00, 0x00, 0x00, 0x01, 0x14, 0x00, 0x00, 0x00,
  0x1c, 0x00, 0x00, 0x00, 0x1c, 0x00, 0x00, 0x00, 0x0a, 0x00, 0x00, 0x00,
  0x34, 0x00, 0x00, 0x00, 0x02, 0x00, 0x00, 0x00, 0xff, 0xff, 0xff, 0xff,
  0x01, 0x00, 0x00, 0x00, 0x9c, 0xfc, 0xff, 0xff, 0x19, 0x00, 0x00, 0x00,
  0x53, 0x74, 0x61, 0x74, 0x65, 0x66, 0x75, 0x6c, 0x50, 0x61, 0x72, 0x74,
  0x69, 0x74, 0x69, 0x6f, 0x6e, 0x65, 0x64, 0x43, 0x61, 0x6c, 0x6c, 0x3a,
  0x30, 0x00, 0x00, 0x00, 0x02, 0x00, 0x00, 0x00, 0x01, 0x00, 0x00, 0x00,
  0x01, 0x00, 0x00, 0x00, 0x0a, 0xfd, 0xff, 0xff, 0x00, 0x00, 0x00, 0x01,
  0x14, 0x00, 0x00, 0x00, 0x1c, 0x00, 0x00, 0x00, 0x1c, 0x00, 0x00, 0x00,
  0x09, 0x00, 0x00, 0x00, 0x68, 0x00, 0x00, 0x00, 0x02, 0x00, 0x00, 0x00,
  0xff, 0xff, 0xff, 0xff, 0x10, 0x00, 0x00, 0x00, 0xf4, 0xfc, 0xff, 0xff,
  0x4c, 0x00, 0x00, 0x00, 0x73, 0x65, 0x71, 0x75, 0x65, 0x6e, 0x74, 0x69,
  0x61, 0x6c, 0x2f, 0x64, 0x65, 0x6e, 0x73, 0x65, 0x5f, 0x31, 0x2f, 0x4d,
  0x61, 0x74, 0x4d, 0x75, 0x6c, 0x3b, 0x73, 0x65, 0x71, 0x75, 0x65, 0x6e,
  0x74, 0x69, 0x61, 0x6c, 0x2f, 0x64, 0x65, 0x6e, 0x73, 0x65, 0x5f, 0x31,
  0x2f, 0x52, 0x65, 0x6c, 0x75, 0x3b, 0x73, 0x65, 0x71, 0x75, 0x65, 0x6e,
  0x74, 0x69, 0x61, 0x6c, 0x2f, 0x64, 0x65, 0x6e, 0x73, 0x65, 0x5f, 0x31,
  0x2f, 0x42, 0x69, 0x61, 0x73, 0x41, 0x64, 0x64, 0x00, 0x00, 0x00, 0x00,
  0x02, 0x00, 0x00, 0x00, 0x01, 0x00, 0x00, 0x00, 0x10, 0x00, 0x00, 0x00,
  0x96, 0xfd, 0xff, 0xff, 0x00, 0x00, 0x00, 0x01, 0x14, 0x00, 0x00, 0x00,
  0x1c, 0x00, 0x00, 0x00, 0x1c, 0x00, 0x00, 0x00, 0x08, 0x00, 0x00, 0x00,
  0x60, 0x00, 0x00, 0x00, 0x02, 0x00, 0x00, 0x00, 0xff, 0xff, 0xff, 0xff,
  0x10, 0x00, 0x00, 0x00, 0x80, 0xfd, 0xff, 0xff, 0x46, 0x00, 0x00, 0x00,
  0x73, 0x65, 0x71, 0x75, 0x65, 0x6e, 0x74, 0x69, 0x61, 0x6c, 0x2f, 0x64,
  0x65, 0x6e, 0x73, 0x65, 0x2f, 0x4d, 0x61, 0x74, 0x4d, 0x75, 0x6c, 0x3b,
  0x73, 0x65, 0x71, 0x75, 0x65, 0x6e, 0x74, 0x69, 0x61, 0x6c, 0x2f, 0x64,
  0x65, 0x6e, 0x73, 0x65, 0x2f, 0x52, 0x65, 0x6c, 0x75, 0x3b, 0x73, 0x65,
  0x71, 0x75, 0x65, 0x6e, 0x74, 0x69, 0x61, 0x6c, 0x2f, 0x64, 0x65, 0x6e,
  0x73, 0x65, 0x2f, 0x42, 0x69, 0x61, 0x73, 0x41, 0x64, 0x64, 0x00, 0x00,
  0x02, 0x00, 0x00, 0x00, 0x01, 0x00, 0x00, 0x00, 0x10, 0x00, 0x00, 0x00,
  0x86, 0xfe, 0xff, 0xff, 0x00, 0x00, 0x00, 0x01, 0x10, 0x00, 0x00, 0x00,
  0x10, 0x00, 0x00, 0x00, 0x07, 0x00, 0x00, 0x00, 0x28, 0x00, 0x00, 0x00,
  0xf4, 0xfd, 0xff, 0xff, 0x19, 0x00, 0x00, 0x00, 0x73, 0x65, 0x71, 0x75,
  0x65, 0x6e, 0x74, 0x69, 0x61, 0x6c, 0x2f, 0x64, 0x65, 0x6e, 0x73, 0x65,
  0x5f, 0x32, 0x2f, 0x4d, 0x61, 0x74, 0x4d, 0x75, 0x6c, 0x00, 0x00, 0x00,
  0x02, 0x00, 0x00, 0x00, 0x01, 0x00, 0x00, 0x00, 0x10, 0x00, 0x00, 0x00,
  0xce, 0xfe, 0xff, 0xff, 0x00, 0x00, 0x00, 0x01, 0x10, 0x00, 0x00, 0x00,
  0x10, 0x00, 0x00, 0x00, 0x06, 0x00, 0x00, 0x00, 0x28, 0x00, 0x00, 0x00,
  0x3c, 0xfe, 0xff, 0xff, 0x19, 0x00, 0x00, 0x00, 0x73, 0x65, 0x71, 0x75,
  0x65, 0x6e, 0x74, 0x69, 0x61, 0x6c, 0x2f, 0x64, 0x65, 0x6e, 0x73, 0x65,
  0x5f, 0x31, 0x2f, 0x4d, 0x61, 0x74, 0x4d, 0x75, 0x6c, 0x00, 0x00, 0x00,
  0x02, 0x00, 0x00, 0x00, 0x10, 0x00, 0x00, 0x00, 0x10, 0x00, 0x00, 0x00,
  0x16, 0xff, 0xff, 0xff, 0x00, 0x00, 0x00, 0x01, 0x10, 0x00, 0x00, 0x00,
  0x10, 0x00, 0x00, 0x00, 0x05, 0x00, 0x00, 0x00, 0x24, 0x00, 0x00, 0x00,
  0x84, 0xfe, 0xff, 0xff, 0x17, 0x00, 0x00, 0x00, 0x73, 0x65, 0x71, 0x75,
  0x65, 0x6e, 0x74, 0x69, 0x61, 0x6c, 0x2f, 0x64, 0x65, 0x6e, 0x73, 0x65,
  0x2f, 0x4d, 0x61, 0x74, 0x4d, 0x75, 0x6c, 0x00, 0x02, 0x00, 0x00, 0x00,
  0x10, 0x00, 0x00, 0x00, 0x01, 0x00, 0x00, 0x00, 0x5a, 0xff, 0xff, 0xff,
  0x00, 0x00, 0x00, 0x01, 0x10, 0x00, 0x00, 0x00, 0x10, 0x00, 0x00, 0x00,
  0x04, 0x00, 0x00, 0x00, 0x34, 0x00, 0x00, 0x00, 0xc8, 0xfe, 0xff, 0xff,
  0x27, 0x00, 0x00, 0x00, 0x73, 0x65, 0x71, 0x75, 0x65, 0x6e, 0x74, 0x69,
  0x61, 0x6c, 0x2f, 0x64, 0x65, 0x6e, 0x73, 0x65, 0x2f, 0x42, 0x69, 0x61,
  0x73, 0x41, 0x64, 0x64, 0x2f, 0x52, 0x65, 0x61, 0x64, 0x56, 0x61, 0x72,
  0x69, 0x61, 0x62, 0x6c, 0x65, 0x4f, 0x70, 0x00, 0x01, 0x00, 0x00, 0x00,
  0x10, 0x00, 0x00, 0x00, 0xaa, 0xff, 0xff, 0xff, 0x00, 0x00, 0x00, 0x01,
  0x10, 0x00, 0x00, 0x00, 0x10, 0x00, 0x00, 0x00, 0x03, 0x00, 0x00, 0x00,
  0x38, 0x00, 0x00, 0x00, 0x18, 0xff, 0xff, 0xff, 0x29, 0x00, 0x00, 0x00,
  0x73, 0x65, 0x71, 0x75, 0x65, 0x6e, 0x74, 0x69, 0x61, 0x6c, 0x2f, 0x64,
  0x65, 0x6e, 0x73, 0x65, 0x5f, 0x32, 0x2f, 0x42, 0x69, 0x61, 0x73, 0x41,
  0x64, 0x64, 0x2f, 0x52, 0x65, 0x61, 0x64, 0x56, 0x61, 0x72, 0x69, 0x61,
  0x62, 0x6c, 0x65, 0x4f, 0x70, 0x00, 0x00, 0x00, 0x01, 0x00, 0x00, 0x00,
  0x01, 0x00, 0x00, 0x00, 0x00, 0x00, 0x16, 0x00, 0x18, 0x00, 0x14, 0x00,
  0x00, 0x00, 0x10, 0x00, 0x0c, 0x00, 0x08, 0x00, 0x00, 0x00, 0x00, 0x00,
  0x00, 0x00, 0x07, 0x00, 0x16, 0x00, 0x00, 0x00, 0x00, 0x00, 0x00, 0x01,
  0x10, 0x00, 0x00, 0x00, 0x10, 0x00, 0x00, 0x00, 0x02, 0x00, 0x00, 0x00,
  0x38, 0x00, 0x00, 0x00, 0x84, 0xff, 0xff, 0xff, 0x29, 0x00, 0x00, 0x00,
  0x73, 0x65, 0x71, 0x75, 0x65, 0x6e, 0x74, 0x69, 0x61, 0x6c, 0x2f, 0x64,
  0x65, 0x6e, 0x73, 0x65, 0x5f, 0x31, 0x2f, 0x42, 0x69, 0x61, 0x73, 0x41,
  0x64, 0x64, 0x2f, 0x52, 0x65, 0x61, 0x64, 0x56, 0x61, 0x72, 0x69, 0x61,
  0x62, 0x6c, 0x65, 0x4f, 0x70, 0x00, 0x00, 0x00, 0x01, 0x00, 0x00, 0x00,
  0x10, 0x00, 0x00, 0x00, 0x00, 0x00, 0x16, 0x00, 0x1c, 0x00, 0x18, 0x00,
  0x00, 0x00, 0x14, 0x00, 0x10, 0x00, 0x0c, 0x00, 0x00, 0x00, 0x00, 0x00,
  0x08, 0x00, 0x07, 0x00, 0x16, 0x00, 0x00, 0x00, 0x00, 0x00, 0x00, 0x01,
  0x14, 0x00, 0x00, 0x00, 0x20, 0x00, 0x00, 0x00, 0x20, 0x00, 0x00, 0x00,
  0x01, 0x00, 0x00, 0x00, 0x3c, 0x00, 0x00, 0x00, 0x02, 0x00, 0x00, 0x00,
  0xff, 0xff, 0xff, 0xff, 0x01, 0x00, 0x00, 0x00, 0x04, 0x00, 0x04, 0x00,
  0x04, 0x00, 0x00, 0x00, 0x1d, 0x00, 0x00, 0x00, 0x73, 0x65, 0x72, 0x76,
  0x69, 0x6e, 0x67, 0x5f, 0x64, 0x65, 0x66, 0x61, 0x75, 0x6c, 0x74, 0x5f,
  0x64, 0x65, 0x6e, 0x73, 0x65, 0x5f, 0x69, 0x6e, 0x70, 0x75, 0x74, 0x3a,
  0x30, 0x00, 0x00, 0x00, 0x02, 0x00, 0x00, 0x00, 0x01, 0x00, 0x00, 0x00,
  0x01, 0x00, 0x00, 0x00, 0x01, 0x00, 0x00, 0x00, 0x10, 0x00, 0x00, 0x00,
  0x0c, 0x00, 0x0c, 0x00, 0x0b, 0x00, 0x00, 0x00, 0x00, 0x00, 0x04, 0x00,
  0x0c, 0x00, 0x00, 0x00, 0x09, 0x00, 0x00, 0x00, 0x00, 0x00, 0x00, 0x09
 
};

#endif //POINT_MODEL_H