#ifndef SINE_MODEL_H
#define SINE_MODEL_H


unsigned int sine_model_len = 3168;
unsigned char sine_model[] = {
 0x1c, 0x00, 0x00, 0x00, 0x54, 0x46, 0x4c, 0x33, 0x14, 0x00, 0x20, 0x00,
  0x1c, 0x00, 0x18, 0x00, 0x14, 0x00, 0x10, 0x00, 0x0c, 0x00, 0x00, 0x00,
  0x08, 0x00, 0x04, 0x00, 0x14, 0x00, 0x00, 0x00, 0x1c, 0x00, 0x00, 0x00,
  0x90, 0x00, 0x00, 0x00, 0xe8, 0x00, 0x00, 0x00, 0x04, 0x07, 0x00, 0x00,
  0x14, 0x07, 0x00, 0x00, 0x0c, 0x0c, 0x00, 0x00, 0x03, 0x00, 0x00, 0x00,
  0x01, 0x00, 0x00, 0x00, 0x10, 0x00, 0x00, 0x00, 0x00, 0x00, 0x0a, 0x00,
  0x10, 0x00, 0x0c, 0x00, 0x08, 0x00, 0x04, 0x00, 0x0a, 0x00, 0x00, 0x00,
  0x0c, 0x00, 0x00, 0x00, 0x1c, 0x00, 0x00, 0x00, 0x38, 0x00, 0x00, 0x00,
  0x0f, 0x00, 0x00, 0x00, 0x73, 0x65, 0x72, 0x76, 0x69, 0x6e, 0x67, 0x5f,
  0x64, 0x65, 0x66, 0x61, 0x75, 0x6c, 0x74, 0x00, 0x01, 0x00, 0x00, 0x00,
  0x04, 0x00, 0x00, 0x00, 0x98, 0xff, 0xff, 0xff, 0x09, 0x00, 0x00, 0x00,
  0x04, 0x00, 0x00, 0x00, 0x07, 0x00, 0x00, 0x00, 0x64, 0x65, 0x6e, 0x73,
  0x65, 0x5f, 0x32, 0x00, 0x01, 0x00, 0x00, 0x00, 0x04, 0x00, 0x00, 0x00,
  0xc6, 0xf9, 0xff, 0xff, 0x04, 0x00, 0x00, 0x00, 0x0b, 0x00, 0x00, 0x00,
  0x64, 0x65, 0x6e, 0x73, 0x65, 0x5f, 0x69, 0x6e, 0x70, 0x75, 0x74, 0x00,
  0x02, 0x00, 0x00, 0x00, 0x34, 0x00, 0x00, 0x00, 0x04, 0x00, 0x00, 0x00,
  0xdc, 0xff, 0xff, 0xff, 0x0c, 0x00, 0x00, 0x00, 0x04, 0x00, 0x00, 0x00,
  0x13, 0x00, 0x00, 0x00, 0x43, 0x4f, 0x4e, 0x56, 0x45, 0x52, 0x53, 0x49,
  0x4f, 0x4e, 0x5f, 0x4d, 0x45, 0x54, 0x41, 0x44, 0x41, 0x54, 0x41, 0x00,
  0x08, 0x00, 0x0c, 0x00, 0x08, 0x00, 0x04, 0x00, 0x08, 0x00, 0x00, 0x00,
  0x0b, 0x00, 0x00, 0x00, 0x04, 0x00, 0x00, 0x00, 0x13, 0x00, 0x00, 0x00,
  0x6d, 0x69, 0x6e, 0x5f, 0x72, 0x75, 0x6e, 0x74, 0x69, 0x6d, 0x65, 0x5f,
  0x76, 0x65, 0x72, 0x73, 0x69, 0x6f, 0x6e, 0x00, 0x0d, 0x00, 0x00, 0x00,
  0x18, 0x06, 0x00, 0x00, 0x10, 0x06, 0x00, 0x00, 0xc0, 0x05, 0x00, 0x00,
  0xa4, 0x05, 0x00, 0x00, 0x54, 0x05, 0x00, 0x00, 0x04, 0x05, 0x00, 0x00,
  0xf4, 0x00, 0x00, 0x00, 0xa4, 0x00, 0x00, 0x00, 0x9c, 0x00, 0x00, 0x00,
  0x94, 0x00, 0x00, 0x00, 0x8c, 0x00, 0x00, 0x00, 0x6c, 0x00, 0x00, 0x00,
  0x04, 0x00, 0x00, 0x00, 0x72, 0xfa, 0xff, 0xff, 0x04, 0x00, 0x00, 0x00,
  0x58, 0x00, 0x00, 0x00, 0x0c, 0x00, 0x00, 0x00, 0x08, 0x00, 0x0e, 0x00,
  0x08, 0x00, 0x04, 0x00, 0x08, 0x00, 0x00, 0x00, 0x10, 0x00, 0x00, 0x00,
  0x28, 0x00, 0x00, 0x00, 0x00, 0x00, 0x06, 0x00, 0x08, 0x00, 0x04, 0x00,
  0x06, 0x00, 0x00, 0x00, 0x04, 0x00, 0x00, 0x00, 0x01, 0x00, 0x00, 0x00,
  0xea, 0x03, 0x00, 0x00, 0x00, 0x00, 0x0a, 0x00, 0x10, 0x00, 0x0c, 0x00,
  0x08, 0x00, 0x04, 0x00, 0x0a, 0x00, 0x00, 0x00, 0x02, 0x00, 0x00, 0x00,
  0x02, 0x00, 0x00, 0x00, 0x04, 0x00, 0x00, 0x00, 0x06, 0x00, 0x00, 0x00,
  0x32, 0x2e, 0x31, 0x31, 0x2e, 0x30, 0x00, 0x00, 0xd6, 0xfa, 0xff, 0xff,
  0x04, 0x00, 0x00, 0x00, 0x10, 0x00, 0x00, 0x00, 0x31, 0x2e, 0x35, 0x2e,
  0x30, 0x00, 0x00, 0x00, 0x00, 0x00, 0x00, 0x00, 0x00, 0x00, 0x00, 0x00,
  0xc0, 0xf5, 0xff, 0xff, 0xc4, 0xf5, 0xff, 0xff, 0xc8, 0xf5, 0xff, 0xff,
  0xfe, 0xfa, 0xff, 0xff, 0x04, 0x00, 0x00, 0x00, 0x40, 0x00, 0x00, 0x00,
  0x29, 0xe1, 0x7b, 0xbe, 0xe8, 0x38, 0x17, 0xbf, 0xde, 0xd4, 0xb5, 0x3e,
  0x10, 0x84, 0x85, 0x3e, 0x5d, 0x47, 0x94, 0xbe, 0x3d, 0x52, 0x20, 0xbe,
  0x58, 0xd8, 0x37, 0xbf, 0xc5, 0x12, 0x47, 0x3e, 0xc7, 0x6a, 0xdc, 0xbe,
  0x5b, 0xac, 0xbf, 0x3e, 0xed, 0x6f, 0x04, 0x3f, 0x7f, 0x7b, 0x76, 0x3d,
  0x1a, 0x56, 0x2a, 0xbf, 0x62, 0x12, 0xcd, 0xbe, 0x87, 0x06, 0x90, 0xbe,
  0xa8, 0x57, 0x18, 0xbf, 0x4a, 0xfb, 0xff, 0xff, 0x04, 0x00, 0x00, 0x00,
  0x00, 0x04, 0x00, 0x00, 0x83, 0x64, 0x43, 0xbe, 0x8b, 0xc2, 0x93, 0x3e,
  0x87, 0x29, 0x42, 0xbe, 0xda, 0x87, 0x91, 0x3e, 0xe0, 0x64, 0xf2, 0xbc,
  0xae, 0x66, 0x4e, 0x3e, 0x30, 0x7a, 0xe8, 0xbd, 0x8e, 0xaa, 0xc5, 0xbe,
  0xef, 0x06, 0x60, 0xbe, 0x0c, 0x0f, 0x8d, 0x3d, 0x4c, 0x07, 0xc7, 0xbd,
  0x96, 0x9c, 0x50, 0x3e, 0x8b, 0xb2, 0x8e, 0x3d, 0xba, 0x7c, 0x4f, 0x3e,
  0x78, 0x44, 0x89, 0xbe, 0xb7, 0x78, 0xbe, 0xbe, 0x7d, 0x72, 0x2c, 0xbe,
  0xe6, 0xd4, 0x85, 0xbd, 0x10, 0x86, 0xd5, 0xbe, 0x31, 0x1c, 0x5f, 0x3c,
  0x50, 0x9a, 0xbe, 0xbd, 0x9f, 0x49, 0x5f, 0x3d, 0xae, 0x68, 0x60, 0x3e,
  0x34, 0xa7, 0xfe, 0x3d, 0xd4, 0x14, 0x07, 0xbe, 0x32, 0x9f, 0x18, 0x3e,
  0x9d, 0xfc, 0xc3, 0x3e, 0x21, 0x87, 0xca, 0x3e, 0xe4, 0x90, 0xc0, 0x3e,
  0x00, 0x34, 0x42, 0xbe, 0x20, 0x16, 0x91, 0xbc, 0x6b, 0x86, 0xc3, 0x3e,
  0x91, 0x3c, 0x0c, 0xbf, 0x20, 0x82, 0x37, 0x3e, 0xaf, 0x0e, 0xca, 0x3e,
  0x2d, 0xe8, 0xad, 0x3e, 0xdf, 0x3a, 0xc4, 0xbe, 0xdd, 0x78, 0xca, 0x3d,
  0xc1, 0x30, 0xb2, 0x3e, 0x4a, 0x64, 0xa7, 0xbe, 0x02, 0x8f, 0xd8, 0xbe,
  0xe4, 0x15, 0xa0, 0xbd, 0xc6, 0xfb, 0xb3, 0xbe, 0x38, 0x83, 0x9d, 0xbd,
  0xe6, 0xe6, 0x97, 0xbe, 0x6d, 0xff, 0x87, 0xbe, 0x6e, 0x72, 0x71, 0x3e,
  0xaf, 0xec, 0x63, 0xbe, 0x38, 0x13, 0x70, 0xbd, 0x0e, 0x8c, 0x55, 0x3c,
  0xce, 0xc1, 0x15, 0xbe, 0x10, 0x0d, 0xb6, 0xbe, 0x5b, 0x3c, 0x90, 0x3e,
  0xc5, 0x35, 0xa1, 0xbe, 0x36, 0x3d, 0x7e, 0x3e, 0xc5, 0x03, 0xbe, 0x3e,
  0x38, 0xd6, 0x04, 0x3d, 0x62, 0xb6, 0x26, 0x3e, 0xe9, 0x11, 0xa8, 0x3e,
  0xf6, 0xf3, 0x00, 0x3e, 0x1e, 0xd6, 0xd3, 0xbe, 0xda, 0xd6, 0x7f, 0x3e,
  0x0b, 0x49, 0xd1, 0x3e, 0x7e, 0x8b, 0x59, 0x3e, 0x2e, 0xac, 0xe0, 0x3e,
  0xa0, 0xfe, 0xa8, 0xbe, 0xcb, 0xe2, 0x8a, 0x3e, 0xa6, 0xc4, 0xfa, 0x3e,
  0xf0, 0x4f, 0xfb, 0xbd, 0x04, 0xa6, 0xac, 0xbd, 0xa0, 0x7f, 0xff, 0xbc,
  0x78, 0x44, 0xad, 0xbe, 0x33, 0x72, 0x98, 0x3e, 0xad, 0x2b, 0xa5, 0x3e,
  0xe6, 0xe5, 0x54, 0x3e, 0xc2, 0xf5, 0x88, 0xbe, 0x55, 0x01, 0x52, 0xbe,
  0x48, 0x55, 0x4f, 0x3d, 0xc1, 0xa0, 0xad, 0xbe, 0x33, 0xae, 0x7b, 0x3e,
  0xb6, 0xdd, 0x7c, 0xbc, 0x71, 0xfc, 0x0a, 0x3e, 0x3e, 0xdc, 0x15, 0x3e,
  0xb8, 0x9c, 0x0e, 0xbe, 0x34, 0x01, 0xb0, 0x3d, 0x5a, 0xda, 0x62, 0x3e,
  0x60, 0x38, 0x84, 0x3c, 0x16, 0x6d, 0x33, 0x3e, 0x1e, 0x3c, 0xd1, 0xbe,
  0xd0, 0x89, 0x1c, 0xbd, 0x40, 0x1b, 0xb5, 0xbe, 0x33, 0x63, 0xb5, 0x3e,
  0x4f, 0x45, 0xb0, 0xbd, 0xdc, 0x9f, 0x20, 0xbe, 0x5c, 0xa2, 0xac, 0x3d,
  0xc8, 0x6a, 0xcb, 0x3e, 0x89, 0x42, 0xb0, 0x3e, 0x84, 0x9b, 0x1e, 0x3f,
  0xbd, 0x57, 0x84, 0x3e, 0x86, 0x05, 0xd0, 0xbe, 0xd3, 0x7c, 0xa0, 0x3e,
  0xd5, 0x20, 0xf1, 0xbe, 0xf0, 0xda, 0xb0, 0xbc, 0x5d, 0x16, 0xa5, 0xbe,
  0xb0, 0x52, 0x37, 0x3d, 0xc6, 0x98, 0x51, 0x3e, 0x2d, 0x92, 0xce, 0x3e,
  0xc7, 0x9c, 0xbf, 0x3e, 0xd4, 0xc2, 0xf0, 0x3d, 0xc6, 0x14, 0x5e, 0x3e,
  0x5a, 0xf0, 0x5a, 0x3e, 0x52, 0xca, 0x49, 0xbf, 0x9f, 0x8f, 0x93, 0xbe,
  0x9a, 0x99, 0x91, 0x3e, 0xdd, 0x83, 0xc9, 0x3e, 0xac, 0x7c, 0x03, 0x3e,
  0xf0, 0xcf, 0x9d, 0xbe, 0x91, 0xfb, 0xae, 0x3e, 0xe7, 0x4a, 0x87, 0x3e,
  0xf3, 0xf0, 0xcb, 0xbe, 0x70, 0x75, 0xa1, 0x3c, 0x00, 0x32, 0x30, 0x3b,
  0x86, 0x51, 0x04, 0x3e, 0x55, 0xd5, 0xbb, 0x3e, 0x8c, 0x03, 0xe2, 0xbe,
  0x28, 0x64, 0xa6, 0xbd, 0xcc, 0x6c, 0x8a, 0x3d, 0x01, 0xe5, 0xe2, 0x3e,
  0x8c, 0xdd, 0x8c, 0x3e, 0xde, 0xc1, 0x51, 0x3d, 0x20, 0x2b, 0xb0, 0xbc,
  0x98, 0xd8, 0x10, 0x3d, 0x0b, 0x29, 0x94, 0xbe, 0x26, 0xa9, 0x6e, 0x3d,
  0xc5, 0x83, 0xca, 0xbe, 0x4e, 0xba, 0x29, 0x3e, 0xe5, 0xa0, 0x80, 0x3e,
  0x58, 0xc1, 0x6a, 0xbe, 0x08, 0xcc, 0xb6, 0xbe, 0x5e, 0x8d, 0x00, 0x3e,
  0x16, 0x1f, 0xe4, 0x3e, 0x98, 0x12, 0xd2, 0xbe, 0x7c, 0x5c, 0x56, 0xbe,
  0xd6, 0xf5, 0x16, 0x3e, 0x0d, 0xf3, 0xa5, 0xbe, 0xed, 0x11, 0x37, 0x3e,
  0x87, 0xc5, 0x8a, 0x3e, 0xbb, 0x15, 0x9b, 0xbe, 0xb4, 0xca, 0xc7, 0x3d,
  0x5d, 0xf7, 0x8e, 0xbe, 0x6f, 0x0a, 0x99, 0xbe, 0xbc, 0xdd, 0xb5, 0xbd,
  0x65, 0xb7, 0x99, 0x3e, 0xc1, 0x45, 0xdc, 0x3e, 0x14, 0x48, 0x3f, 0xbe,
  0x40, 0xa4, 0x86, 0xbc, 0x30, 0xa4, 0x2d, 0xbe, 0x10, 0x86, 0x48, 0xbe,
  0x4a, 0x34, 0xa9, 0xbe, 0xbb, 0xc4, 0xc4, 0xbe, 0xfe, 0xbb, 0x5a, 0xbe,
  0x79, 0x0c, 0xb0, 0x3d, 0x65, 0x76, 0xdb, 0xbe, 0x47, 0x10, 0x8f, 0xbd,
  0x80, 0x34, 0x05, 0xbb, 0x7c, 0x60, 0xa4, 0x3e, 0xc9, 0xfd, 0xcf, 0x3e,
  0xf5, 0xe6, 0xb2, 0x3e, 0xd4, 0x95, 0xde, 0x3d, 0xc5, 0x1e, 0xcc, 0x3e,
  0xd5, 0xc6, 0xba, 0xbe, 0xdf, 0xba, 0xbf, 0x3e, 0xd2, 0x80, 0xc9, 0xbe,
  0xe5, 0xf8, 0xb9, 0xbe, 0x9f, 0xd3, 0xca, 0xbe, 0x81, 0x1d, 0xd6, 0x3e,
  0x42, 0xf6, 0xfe, 0x3d, 0x04, 0x1f, 0x02, 0x3f, 0xa1, 0x19, 0xa1, 0x3e,
  0xe2, 0xd7, 0xa7, 0x3e, 0x16, 0xa1, 0x09, 0x3e, 0xed, 0xa1, 0x85, 0x3e,
  0x4b, 0x78, 0xbf, 0x3e, 0xa0, 0x4b, 0x35, 0xbc, 0x66, 0xbf, 0x66, 0x3e,
  0xde, 0x9f, 0x08, 0xbe, 0x70, 0xde, 0xb9, 0xbc, 0xb0, 0xf7, 0x28, 0xbd,
  0xe6, 0x3d, 0x60, 0x3e, 0xbd, 0x86, 0x95, 0x3e, 0x80, 0xa3, 0x26, 0x3c,
  0x73, 0x1f, 0x9f, 0x3d, 0x35, 0xd0, 0x05, 0x3f, 0x61, 0x8a, 0x95, 0xbe,
  0x6e, 0xbf, 0x5f, 0x3e, 0x6e, 0x8d, 0xe8, 0x3c, 0xb4, 0xba, 0x5b, 0xbe,
  0x58, 0x0e, 0x92, 0x3e, 0x9e, 0x2f, 0x81, 0xbe, 0x90, 0xe6, 0x88, 0xbc,
  0x2a, 0x81, 0x21, 0xbe, 0x6e, 0x9b, 0x30, 0x3e, 0xe0, 0x7f, 0x6c, 0xbc,
  0x1c, 0x09, 0xf0, 0x3d, 0x50, 0x7b, 0x94, 0xbc, 0xf7, 0x20, 0xa6, 0x3e,
  0xc8, 0xdb, 0xcd, 0xbe, 0x74, 0x09, 0xd7, 0x3e, 0x86, 0x3e, 0x32, 0x3e,
  0x4c, 0x93, 0x7f, 0xbe, 0x00, 0x8e, 0x08, 0x3c, 0x94, 0x88, 0xed, 0x3d,
  0x3d, 0x17, 0x58, 0xbe, 0x93, 0xcd, 0xd5, 0xbe, 0xb4, 0xaa, 0xcf, 0xbd,
  0x66, 0xf3, 0x2a, 0xbe, 0xbd, 0x81, 0x9b, 0x3e, 0x5a, 0x5d, 0x1c, 0x3e,
  0x1f, 0x25, 0xdb, 0x3e, 0x54, 0xb0, 0x8a, 0xbd, 0x7d, 0xb0, 0xd9, 0xbe,
  0xee, 0xcd, 0xb6, 0xbe, 0x6e, 0x0b, 0x0b, 0x3e, 0x55, 0x1e, 0xb7, 0x3e,
  0xa8, 0x0a, 0x63, 0x3d, 0x2f, 0x55, 0xa1, 0xbe, 0x79, 0xdc, 0xbd, 0x3e,
  0xc6, 0x7f, 0x14, 0x3e, 0xcc, 0x3b, 0x4f, 0xbe, 0xb8, 0x06, 0x85, 0xbd,
  0xb9, 0xe9, 0x83, 0x3e, 0x4b, 0xab, 0x86, 0xbe, 0x49, 0xce, 0x3c, 0xbe,
  0xf7, 0x2e, 0xd4, 0xbe, 0x11, 0xb2, 0xb3, 0x3e, 0x32, 0xe2, 0xca, 0xbe,
  0x9b, 0x95, 0x93, 0x3e, 0x00, 0xc8, 0x99, 0xbe, 0xc4, 0x4b, 0xd2, 0xbd,
  0xd6, 0x7e, 0xc0, 0xbe, 0x6c, 0x80, 0x83, 0x3e, 0x02, 0x98, 0x7a, 0x3d,
  0x48, 0xc0, 0x62, 0xbd, 0x89, 0xe5, 0xed, 0x3e, 0x9d, 0x1f, 0xd0, 0x3e,
  0x3f, 0x01, 0x1a, 0x3e, 0x7a, 0xee, 0xbf, 0xbe, 0x2c, 0x76, 0xf0, 0x3d,
  0xcd, 0x22, 0xb7, 0x3e, 0xbd, 0xef, 0xb0, 0xbe, 0xea, 0x8b, 0x65, 0x3e,
  0xa2, 0xeb, 0x52, 0x3e, 0xb0, 0xfc, 0x83, 0xbe, 0x47, 0xb2, 0xc5, 0x3e,
  0x65, 0xec, 0xc4, 0x3e, 0xe4, 0xdc, 0xb4, 0xbe, 0x56, 0xff, 0xff, 0xff,
  0x04, 0x00, 0x00, 0x00, 0x40, 0x00, 0x00, 0x00, 0x74, 0x3e, 0xe8, 0x3d,
  0xa8, 0x5c, 0x38, 0x3e, 0x22, 0x7b, 0xf0, 0xbe, 0x5d, 0x76, 0x04, 0x3f,
  0xd9, 0xb5, 0xa8, 0xbe, 0x81, 0xb3, 0x1d, 0x3f, 0xc0, 0x16, 0x7d, 0xbc,
  0x3a, 0xd0, 0xb9, 0xbe, 0x1e, 0x15, 0x06, 0xbf, 0x34, 0xf3, 0xef, 0xbd,
  0x8c, 0x7f, 0x98, 0xbe, 0x1e, 0x34, 0x3d, 0xbe, 0xfe, 0xaa, 0x53, 0x3e,
  0xa6, 0x40, 0xf6, 0xbe, 0x85, 0x01, 0x11, 0xbf, 0xae, 0xe7, 0xea, 0x3e,
  0xa2, 0xff, 0xff, 0xff, 0x04, 0x00, 0x00, 0x00, 0x40, 0x00, 0x00, 0x00,
  0x7c, 0xcf, 0x2e, 0xbe, 0xc4, 0xe2, 0xa9, 0x3e, 0x00, 0x00, 0x00, 0x00,
  0xbd, 0x31, 0x92, 0xbd, 0x00, 0x00, 0x00, 0x00, 0x25, 0xd0, 0xc1, 0xbb,
  0x00, 0x00, 0x00, 0x00, 0x00, 0x00, 0x00, 0x00, 0x00, 0x00, 0x00, 0x00,
  0x00, 0x00, 0x00, 0x00, 0x00, 0x00, 0x00, 0x00, 0x00, 0x00, 0x00, 0x00,
  0xb6, 0x66, 0x9f, 0xbe, 0x00, 0x00, 0x00, 0x00, 0x00, 0x00, 0x00, 0x00,
  0x3d, 0xb3, 0x81, 0xbb, 0xee, 0xff, 0xff, 0xff, 0x04, 0x00, 0x00, 0x00,
  0x04, 0x00, 0x00, 0x00, 0x33, 0x55, 0x53, 0x3e, 0x00, 0x00, 0x06, 0x00,
  0x08, 0x00, 0x04, 0x00, 0x06, 0x00, 0x00, 0x00, 0x04, 0x00, 0x00, 0x00,
  0x40, 0x00, 0x00, 0x00, 0x4b, 0x77, 0x9c, 0xbe, 0x16, 0x33, 0x90, 0xbe,
  0xaa, 0xbe, 0x56, 0x3e, 0x73, 0xf1, 0xe8, 0xbb, 0x94, 0x8c, 0x72, 0xbe,
  0x62, 0x70, 0xc0, 0xbe, 0x03, 0x18, 0xe0, 0x3e, 0x42, 0x23, 0x52, 0x3e,
  0x09, 0x5b, 0x57, 0xbe, 0xda, 0xbd, 0x7d, 0xbd, 0x84, 0xd8, 0x52, 0x3e,
  0x66, 0x31, 0x51, 0x3e, 0x45, 0x62, 0x93, 0xbe, 0x00, 0x00, 0x00, 0x00,
  0x00, 0x00, 0x00, 0x00, 0xa5, 0x70, 0x85, 0xbe, 0x20, 0xfb, 0xff, 0xff,
  0x24, 0xfb, 0xff, 0xff, 0x0f, 0x00, 0x00, 0x00, 0x4d, 0x4c, 0x49, 0x52,
  0x20, 0x43, 0x6f, 0x6e, 0x76, 0x65, 0x72, 0x74, 0x65, 0x64, 0x2e, 0x00,
  0x01, 0x00, 0x00, 0x00, 0x14, 0x00, 0x00, 0x00, 0x00, 0x00, 0x0e, 0x00,
  0x18, 0x00, 0x14, 0x00, 0x10, 0x00, 0x0c, 0x00, 0x08, 0x00, 0x04, 0x00,
  0x0e, 0x00, 0x00, 0x00, 0x14, 0x00, 0x00, 0x00, 0x1c, 0x00, 0x00, 0x00,
  0xd8, 0x00, 0x00, 0x00, 0xdc, 0x00, 0x00, 0x00, 0xe0, 0x00, 0x00, 0x00,
  0x04, 0x00, 0x00, 0x00, 0x6d, 0x61, 0x69, 0x6e, 0x00, 0x00, 0x00, 0x00,
  0x03, 0x00, 0x00, 0x00, 0x80, 0x00, 0x00, 0x00, 0x38, 0x00, 0x00, 0x00,
  0x04, 0x00, 0x00, 0x00, 0x9a, 0xff, 0xff, 0xff, 0x10, 0x00, 0x00, 0x00,
  0x00, 0x00, 0x00, 0x08, 0x0c, 0x00, 0x00, 0x00, 0x10, 0x00, 0x00, 0x00,
  0x9c, 0xfb, 0xff, 0xff, 0x01, 0x00, 0x00, 0x00, 0x09, 0x00, 0x00, 0x00,
  0x03, 0x00, 0x00, 0x00, 0x08, 0x00, 0x00, 0x00, 0x06, 0x00, 0x00, 0x00,
  0x02, 0x00, 0x00, 0x00, 0xca, 0xff, 0xff, 0xff, 0x10, 0x00, 0x00, 0x00,
  0x00, 0x00, 0x00, 0x08, 0x10, 0x00, 0x00, 0x00, 0x14, 0x00, 0x00, 0x00,
  0xba, 0xff, 0xff, 0xff, 0x00, 0x00, 0x00, 0x01, 0x01, 0x00, 0x00, 0x00,
  0x08, 0x00, 0x00, 0x00, 0x03, 0x00, 0x00, 0x00, 0x07, 0x00, 0x00, 0x00,
  0x05, 0x00, 0x00, 0x00, 0x01, 0x00, 0x00, 0x00, 0x00, 0x00, 0x0e, 0x00,
  0x16, 0x00, 0x00, 0x00, 0x10, 0x00, 0x0c, 0x00, 0x0b, 0x00, 0x04, 0x00,
  0x0e, 0x00, 0x00, 0x00, 0x18, 0x00, 0x00, 0x00, 0x00, 0x00, 0x00, 0x08,
  0x18, 0x00, 0x00, 0x00, 0x1c, 0x00, 0x00, 0x00, 0x00, 0x00, 0x06, 0x00,
  0x08, 0x00, 0x07, 0x00, 0x06, 0x00, 0x00, 0x00, 0x00, 0x00, 0x00, 0x01,
  0x01, 0x00, 0x00, 0x00, 0x07, 0x00, 0x00, 0x00, 0x03, 0x00, 0x00, 0x00,
  0x00, 0x00, 0x00, 0x00, 0x04, 0x00, 0x00, 0x00, 0x03, 0x00, 0x00, 0x00,
  0x01, 0x00, 0x00, 0x00, 0x09, 0x00, 0x00, 0x00, 0x01, 0x00, 0x00, 0x00,
  0x00, 0x00, 0x00, 0x00, 0x0a, 0x00, 0x00, 0x00, 0x8c, 0x03, 0x00, 0x00,
  0x1c, 0x03, 0x00, 0x00, 0xac, 0x02, 0x00, 0x00, 0x58, 0x02, 0x00, 0x00,
  0x10, 0x02, 0x00, 0x00, 0xc4, 0x01, 0x00, 0x00, 0x78, 0x01, 0x00, 0x00,
  0xf0, 0x00, 0x00, 0x00, 0x60, 0x00, 0x00, 0x00, 0x04, 0x00, 0x00, 0x00,
  0xb2, 0xfc, 0xff, 0xff, 0x00, 0x00, 0x00, 0x01, 0x14, 0x00, 0x00, 0x00,
  0x1c, 0x00, 0x00, 0x00, 0x1c, 0x00, 0x00, 0x00, 0x0a, 0x00, 0x00, 0x00,
  0x34, 0x00, 0x00, 0x00, 0x02, 0x00, 0x00, 0x00, 0xff, 0xff, 0xff, 0xff,
  0x01, 0x00, 0x00, 0x00, 0x9c, 0xfc, 0xff, 0xff, 0x19, 0x00, 0x00, 0x00,
  0x53, 0x74, 0x61, 0x74, 0x65, 0x66, 0x75, 0x6c, 0x50, 0x61, 0x72, 0x74,
  0x69, 0x74, 0x69, 0x6f, 0x6e, 0x65, 0x64, 0x43, 0x61, 0x6c, 0x6c, 0x3a,
  0x30, 0x00, 0x00, 0x00, 0x02, 0x00, 0x00, 0x00, 0x01, 0x00, 0x00, 0x00,
  0x01, 0x00, 0x00, 0x00, 0x0a, 0xfd, 0xff, 0xff, 0x00, 0x00, 0x00, 0x01,
  0x14, 0x00, 0x00, 0x00, 0x1c, 0x00, 0x00, 0x00, 0x1c, 0x00, 0x00, 0x00,
  0x09, 0x00, 0x00, 0x00, 0x68, 0x00, 0x00, 0x00, 0x02, 0x00, 0x00, 0x00,
  0xff, 0xff, 0xff, 0xff, 0x10, 0x00, 0x00, 0x00, 0xf4, 0xfc, 0xff, 0xff,
  0x4c, 0x00, 0x00, 0x00, 0x73, 0x65, 0x71, 0x75, 0x65, 0x6e, 0x74, 0x69,
  0x61, 0x6c, 0x2f, 0x64, 0x65, 0x6e, 0x73, 0x65, 0x5f, 0x31, 0x2f, 0x4d,
  0x61, 0x74, 0x4d, 0x75, 0x6c, 0x3b, 0x73, 0x65, 0x71, 0x75, 0x65, 0x6e,
  0x74, 0x69, 0x61, 0x6c, 0x2f, 0x64, 0x65, 0x6e, 0x73, 0x65, 0x5f, 0x31,
  0x2f, 0x52, 0x65, 0x6c, 0x75, 0x3b, 0x73, 0x65, 0x71, 0x75, 0x65, 0x6e,
  0x74, 0x69, 0x61, 0x6c, 0x2f, 0x64, 0x65, 0x6e, 0x73, 0x65, 0x5f, 0x31,
  0x2f, 0x42, 0x69, 0x61, 0x73, 0x41, 0x64, 0x64, 0x00, 0x00, 0x00, 0x00,
  0x02, 0x00, 0x00, 0x00, 0x01, 0x00, 0x00, 0x00, 0x10, 0x00, 0x00, 0x00,
  0x96, 0xfd, 0xff, 0xff, 0x00, 0x00, 0x00, 0x01, 0x14, 0x00, 0x00, 0x00,
  0x1c, 0x00, 0x00, 0x00, 0x1c, 0x00, 0x00, 0x00, 0x08, 0x00, 0x00, 0x00,
  0x60, 0x00, 0x00, 0x00, 0x02, 0x00, 0x00, 0x00, 0xff, 0xff, 0xff, 0xff,
  0x10, 0x00, 0x00, 0x00, 0x80, 0xfd, 0xff, 0xff, 0x46, 0x00, 0x00, 0x00,
  0x73, 0x65, 0x71, 0x75, 0x65, 0x6e, 0x74, 0x69, 0x61, 0x6c, 0x2f, 0x64,
  0x65, 0x6e, 0x73, 0x65, 0x2f, 0x4d, 0x61, 0x74, 0x4d, 0x75, 0x6c, 0x3b,
  0x73, 0x65, 0x71, 0x75, 0x65, 0x6e, 0x74, 0x69, 0x61, 0x6c, 0x2f, 0x64,
  0x65, 0x6e, 0x73, 0x65, 0x2f, 0x52, 0x65, 0x6c, 0x75, 0x3b, 0x73, 0x65,
  0x71, 0x75, 0x65, 0x6e, 0x74, 0x69, 0x61, 0x6c, 0x2f, 0x64, 0x65, 0x6e,
  0x73, 0x65, 0x2f, 0x42, 0x69, 0x61, 0x73, 0x41, 0x64, 0x64, 0x00, 0x00,
  0x02, 0x00, 0x00, 0x00, 0x01, 0x00, 0x00, 0x00, 0x10, 0x00, 0x00, 0x00,
  0x86, 0xfe, 0xff, 0xff, 0x00, 0x00, 0x00, 0x01, 0x10, 0x00, 0x00, 0x00,
  0x10, 0x00, 0x00, 0x00, 0x07, 0x00, 0x00, 0x00, 0x28, 0x00, 0x00, 0x00,
  0xf4, 0xfd, 0xff, 0xff, 0x19, 0x00, 0x00, 0x00, 0x73, 0x65, 0x71, 0x75,
  0x65, 0x6e, 0x74, 0x69, 0x61, 0x6c, 0x2f, 0x64, 0x65, 0x6e, 0x73, 0x65,
  0x5f, 0x32, 0x2f, 0x4d, 0x61, 0x74, 0x4d, 0x75, 0x6c, 0x00, 0x00, 0x00,
  0x02, 0x00, 0x00, 0x00, 0x01, 0x00, 0x00, 0x00, 0x10, 0x00, 0x00, 0x00,
  0xce, 0xfe, 0xff, 0xff, 0x00, 0x00, 0x00, 0x01, 0x10, 0x00, 0x00, 0x00,
  0x10, 0x00, 0x00, 0x00, 0x06, 0x00, 0x00, 0x00, 0x28, 0x00, 0x00, 0x00,
  0x3c, 0xfe, 0xff, 0xff, 0x19, 0x00, 0x00, 0x00, 0x73, 0x65, 0x71, 0x75,
  0x65, 0x6e, 0x74, 0x69, 0x61, 0x6c, 0x2f, 0x64, 0x65, 0x6e, 0x73, 0x65,
  0x5f, 0x31, 0x2f, 0x4d, 0x61, 0x74, 0x4d, 0x75, 0x6c, 0x00, 0x00, 0x00,
  0x02, 0x00, 0x00, 0x00, 0x10, 0x00, 0x00, 0x00, 0x10, 0x00, 0x00, 0x00,
  0x16, 0xff, 0xff, 0xff, 0x00, 0x00, 0x00, 0x01, 0x10, 0x00, 0x00, 0x00,
  0x10, 0x00, 0x00, 0x00, 0x05, 0x00, 0x00, 0x00, 0x24, 0x00, 0x00, 0x00,
  0x84, 0xfe, 0xff, 0xff, 0x17, 0x00, 0x00, 0x00, 0x73, 0x65, 0x71, 0x75,
  0x65, 0x6e, 0x74, 0x69, 0x61, 0x6c, 0x2f, 0x64, 0x65, 0x6e, 0x73, 0x65,
  0x2f, 0x4d, 0x61, 0x74, 0x4d, 0x75, 0x6c, 0x00, 0x02, 0x00, 0x00, 0x00,
  0x10, 0x00, 0x00, 0x00, 0x01, 0x00, 0x00, 0x00, 0x5a, 0xff, 0xff, 0xff,
  0x00, 0x00, 0x00, 0x01, 0x10, 0x00, 0x00, 0x00, 0x10, 0x00, 0x00, 0x00,
  0x04, 0x00, 0x00, 0x00, 0x34, 0x00, 0x00, 0x00, 0xc8, 0xfe, 0xff, 0xff,
  0x27, 0x00, 0x00, 0x00, 0x73, 0x65, 0x71, 0x75, 0x65, 0x6e, 0x74, 0x69,
  0x61, 0x6c, 0x2f, 0x64, 0x65, 0x6e, 0x73, 0x65, 0x2f, 0x42, 0x69, 0x61,
  0x73, 0x41, 0x64, 0x64, 0x2f, 0x52, 0x65, 0x61, 0x64, 0x56, 0x61, 0x72,
  0x69, 0x61, 0x62, 0x6c, 0x65, 0x4f, 0x70, 0x00, 0x01, 0x00, 0x00, 0x00,
  0x10, 0x00, 0x00, 0x00, 0xaa, 0xff, 0xff, 0xff, 0x00, 0x00, 0x00, 0x01,
  0x10, 0x00, 0x00, 0x00, 0x10, 0x00, 0x00, 0x00, 0x03, 0x00, 0x00, 0x00,
  0x38, 0x00, 0x00, 0x00, 0x18, 0xff, 0xff, 0xff, 0x29, 0x00, 0x00, 0x00,
  0x73, 0x65, 0x71, 0x75, 0x65, 0x6e, 0x74, 0x69, 0x61, 0x6c, 0x2f, 0x64,
  0x65, 0x6e, 0x73, 0x65, 0x5f, 0x32, 0x2f, 0x42, 0x69, 0x61, 0x73, 0x41,
  0x64, 0x64, 0x2f, 0x52, 0x65, 0x61, 0x64, 0x56, 0x61, 0x72, 0x69, 0x61,
  0x62, 0x6c, 0x65, 0x4f, 0x70, 0x00, 0x00, 0x00, 0x01, 0x00, 0x00, 0x00,
  0x01, 0x00, 0x00, 0x00, 0x00, 0x00, 0x16, 0x00, 0x18, 0x00, 0x14, 0x00,
  0x00, 0x00, 0x10, 0x00, 0x0c, 0x00, 0x08, 0x00, 0x00, 0x00, 0x00, 0x00,
  0x00, 0x00, 0x07, 0x00, 0x16, 0x00, 0x00, 0x00, 0x00, 0x00, 0x00, 0x01,
  0x10, 0x00, 0x00, 0x00, 0x10, 0x00, 0x00, 0x00, 0x02, 0x00, 0x00, 0x00,
  0x38, 0x00, 0x00, 0x00, 0x84, 0xff, 0xff, 0xff, 0x29, 0x00, 0x00, 0x00,
  0x73, 0x65, 0x71, 0x75, 0x65, 0x6e, 0x74, 0x69, 0x61, 0x6c, 0x2f, 0x64,
  0x65, 0x6e, 0x73, 0x65, 0x5f, 0x31, 0x2f, 0x42, 0x69, 0x61, 0x73, 0x41,
  0x64, 0x64, 0x2f, 0x52, 0x65, 0x61, 0x64, 0x56, 0x61, 0x72, 0x69, 0x61,
  0x62, 0x6c, 0x65, 0x4f, 0x70, 0x00, 0x00, 0x00, 0x01, 0x00, 0x00, 0x00,
  0x10, 0x00, 0x00, 0x00, 0x00, 0x00, 0x16, 0x00, 0x1c, 0x00, 0x18, 0x00,
  0x00, 0x00, 0x14, 0x00, 0x10, 0x00, 0x0c, 0x00, 0x00, 0x00, 0x00, 0x00,
  0x08, 0x00, 0x07, 0x00, 0x16, 0x00, 0x00, 0x00, 0x00, 0x00, 0x00, 0x01,
  0x14, 0x00, 0x00, 0x00, 0x20, 0x00, 0x00, 0x00, 0x20, 0x00, 0x00, 0x00,
  0x01, 0x00, 0x00, 0x00, 0x3c, 0x00, 0x00, 0x00, 0x02, 0x00, 0x00, 0x00,
  0xff, 0xff, 0xff, 0xff, 0x01, 0x00, 0x00, 0x00, 0x04, 0x00, 0x04, 0x00,
  0x04, 0x00, 0x00, 0x00, 0x1d, 0x00, 0x00, 0x00, 0x73, 0x65, 0x72, 0x76,
  0x69, 0x6e, 0x67, 0x5f, 0x64, 0x65, 0x66, 0x61, 0x75, 0x6c, 0x74, 0x5f,
  0x64, 0x65, 0x6e, 0x73, 0x65, 0x5f, 0x69, 0x6e, 0x70, 0x75, 0x74, 0x3a,
  0x30, 0x00, 0x00, 0x00, 0x02, 0x00, 0x00, 0x00, 0x01, 0x00, 0x00, 0x00,
  0x01, 0x00, 0x00, 0x00, 0x01, 0x00, 0x00, 0x00, 0x10, 0x00, 0x00, 0x00,
  0x0c, 0x00, 0x0c, 0x00, 0x0b, 0x00, 0x00, 0x00, 0x00, 0x00, 0x04, 0x00,
  0x0c, 0x00, 0x00, 0x00, 0x09, 0x00, 0x00, 0x00, 0x00, 0x00, 0x00, 0x09
 
};

#endif //SINE_MODEL_H